{
  "version": "1.0",
  "truncation": null,
  "padding": null,
  "added_tokens": [
    {
      "id": 0,
      "content": "[PAD]",
      "single_word": false,
      "lstrip": false,
      "rstrip": false,
      "normalized": false,
      "special": true
    },
    {
      "id": 1,
      "content": "[UNK]",
      "single_word": false,
      "lstrip": false,
      "rstrip": false,
      "normalized": false,
      "special": true
    },
    {
      "id": 2,
      "content": "[BOS]",
      "single_word": false,
      "lstrip": false,
      "rstrip": false,
      "normalized": false,
      "special": true
    },
    {
      "id": 3,
      "content": "[EOS]",
      "single_word": false,
      "lstrip": false,
      "rstrip": false,
      "normalized": false,
      "special": true
    }
  ],
  "normalizer": {
    "type": "Sequence",
    "normalizers": [
      {
        "type": "NFD"
      },
      {
        "type": "Lowercase"
      },
      {
        "type": "StripAccents"
      }
    ]
  },
  "pre_tokenizer": {
    "type": "Whitespace"
  },
  "post_processor": {
    "type": "TemplateProcessing",
    "single": [
      {
        "SpecialToken": {
          "id": "[BOS]",
          "type_id": 0
        }
      },
      {
        "Sequence": {
          "id": "A",
          "type_id": 0
        }
      },
      {
        "SpecialToken": {
          "id": "[EOS]",
          "type_id": 0
        }
      }
    ],
    "pair": [
      {
        "SpecialToken": {
          "id": "[BOS]",
          "type_id": 0
        }
      },
      {
        "Sequence": {
          "id": "A",
          "type_id": 0
        }
      },
      {
        "SpecialToken": {
          "id": "[EOS]",
          "type_id": 0
        }
      },
      {
        "Sequence": {
          "id": "B",
          "type_id": 1
        }
      },
      {
        "SpecialToken": {
          "id": "[EOS]",
          "type_id": 1
        }
      }
    ],
    "special_tokens": {
      "[BOS]": {
        "id": "[BOS]",
        "ids": [
          2
        ],
        "tokens": [
          "[BOS]"
        ]
      },
      "[EOS]": {
        "id": "[EOS]",
        "ids": [
          3
        ],
        "tokens": [
          "[EOS]"
        ]
      }
    }
  },
  "decoder": null,
  "model": {
    "type": "BPE",
    "dropout": null,
    "unk_token": "[UNK]",
    "continuing_subword_prefix": null,
    "end_of_word_suffix": null,
    "fuse_unk": false,
    "byte_fallback": false,
    "ignore_merges": false,
    "vocab": {
      "[PAD]": 0,
      "[UNK]": 1,
      "[BOS]": 2,
      "[EOS]": 3,
      "!": 4,
      "\"": 5,
      "#": 6,
      "$": 7,
      "%": 8,
      "&": 9,
      "'": 10,
      "(": 11,
      ")": 12,
      "*": 13,
      "+": 14,
      ",": 15,
      "-": 16,
      ".": 17,
      "/": 18,
      "0": 19,
      "1": 20,
      "2": 21,
      "3": 22,
      "4": 23,
      "5": 24,
      "6": 25,
      "7": 26,
      "8": 27,
      "9": 28,
      ":": 29,
      ";": 30,
      "<": 31,
      ">": 32,
      "?": 33,
      "[": 34,
      "\\": 35,
      "]": 36,
      "_": 37,
      "`": 38,
      "a": 39,
      "b": 40,
      "c": 41,
      "d": 42,
      "e": 43,
      "f": 44,
      "g": 45,
      "h": 46,
      "i": 47,
      "j": 48,
      "k": 49,
      "l": 50,
      "m": 51,
      "n": 52,
      "o": 53,
      "p": 54,
      "q": 55,
      "r": 56,
      "s": 57,
      "t": 58,
      "u": 59,
      "v": 60,
      "w": 61,
      "x": 62,
      "y": 63,
      "z": 64,
      "|": 65,
      "~": 66,
      "¡": 67,
      "¢": 68,
      "¦": 69,
      "©": 70,
      "«": 71,
      "­": 72,
      "¯": 73,
      "±": 74,
      "³": 75,
      "´": 76,
      "¶": 77,
      "»": 78,
      "œ": 79,
      "˜": 80,
      "‚": 81,
      "“": 82,
      "”": 83,
      "•": 84,
      "…": 85,
      "‰": 86,
      "‹": 87,
      "€": 88,
      "™": 89,
      "he": 90,
      "the": 91,
      "an": 92,
      "ed": 93,
      "to": 94,
      "and": 95,
      "in": 96,
      "it": 97,
      "re": 98,
      "ou": 99,
      "as": 100,
      "on": 101,
      "ha": 102,
      "er": 103,
      "was": 104,
      "en": 105,
      "ar": 106,
      "ay": 107,
      "she": 108,
      "ing": 109,
      "om": 110,
      "is": 111,
      "il": 112,
      "id": 113,
      "sa": 114,
      "they": 115,
      "le": 116,
      "al": 117,
      "lo": 118,
      "im": 119,
      "or": 120,
      "her": 121,
      "st": 122,
      "th": 123,
      "ir": 124,
      "at": 125,
      "be": 126,
      "no": 127,
      "hat": 128,
      "ver": 129,
      "ut": 130,
      "you": 131,
      "ke": 132,
      "se": 133,
      "ck": 134,
      "ld": 135,
      "ce": 136,
      "ily": 137,
      "said": 138,
      "ve": 139,
      "ri": 140,
      "so": 141,
      "tim": 142,
      "we": 143,
      "pl": 144,
      "his": 145,
      "wit": 146,
      "am": 147,
      "with": 148,
      "pp": 149,
      "lily": 150,
      "mom": 151,
      "ig": 152,
      "ad": 153,
      "one": 154,
      "un": 155,
      "ok": 156,
      "of": 157,
      "that": 158,
      "day": 159,
      "ly": 160,
      "very": 161,
      "but": 162,
      "li": 163,
      "ome": 164,
      "do": 165,
      "go": 166,
      "ho": 167,
      "ne": 168,
      "up": 169,
      "my": 170,
      "ted": 171,
      "bo": 172,
      "es": 173,
      "play": 174,
      "had": 175,
      "ch": 176,
      "for": 177,
      "ro": 178,
      "all": 179,
      "fe": 180,
      "ould": 181,
      "end": 182,
      "ked": 183,
      "happ": 184,
      "tle": 185,
      "are": 186,
      "wan": 187,
      "ge": 188,
      "oun": 189,
      "ent": 190,
      "ma": 191,
      "not": 192,
      "there": 193,
      "lit": 194,
      "ound": 195,
      "ther": 196,
      "time": 197,
      "out": 198,
      "little": 199,
      "ry": 200,
      "ra": 201,
      "happy": 202,
      "big": 203,
      "ht": 204,
      "sm": 205,
      "fri": 206,
      "saw": 207,
      "some": 208,
      "friend": 209,
      "look": 210,
      ".\"": 211,
      "thing": 212,
      "ack": 213,
      "ul": 214,
      "ide": 215,
      "ug": 216,
      "!\"": 217,
      "were": 218,
      "ved": 219,
      "once": 220,
      "way": 221,
      "sp": 222,
      "whe": 223,
      "car": 224,
      "tom": 225,
      "him": 226,
      "ter": 227,
      "ben": 228,
      "can": 229,
      "their": 230,
      "su": 231,
      "el": 232,
      "wanted": 233,
      "irl": 234,
      "them": 235,
      "upon": 236,
      "girl": 237,
      "ful": 238,
      "co": 239,
      "mo": 240,
      "did": 241,
      "ill": 242,
      "hel": 243,
      "me": 244,
      "have": 245,
      "could": 246,
      "smil": 247,
      "fr": 248,
      "ec": 249,
      "sh": 250,
      "ind": 251,
      "ag": 252,
      "ex": 253,
      "went": 254,
      "ta": 255,
      "new": 256,
      "od": 257,
      "help": 258,
      "nam": 259,
      "?\"": 260,
      "friends": 261,
      "say": 262,
      "what": 263,
      "ard": 264,
      "fel": 265,
      "when": 266,
      "back": 267,
      "like": 268,
      "man": 269,
      "wn": 270,
      "ur": 271,
      "from": 272,
      "fun": 273,
      "um": 274,
      "too": 275,
      "fo": 276,
      "side": 277,
      "ark": 278,
      "che": 279,
      "ran": 280,
      "then": 281,
      "timmy": 282,
      "ic": 283,
      "ght": 284,
      "every": 285,
      "la": 286,
      "star": 287,
      "named": 288,
      "jo": 289,
      "loved": 290,
      "pr": 291,
      "see": 292,
      "smiled": 293,
      "sto": 294,
      "toy": 295,
      "ain": 296,
      "now": 297,
      "felt": 298,
      "asked": 299,
      "ts": 300,
      "pe": 301,
      "low": 302,
      "ick": 303,
      "looked": 304,
      "how": 305,
      "ame": 306,
      "make": 307,
      "ab": 308,
      "around": 309,
      "bir": 310,
      "would": 311,
      "boy": 312,
      "wor": 313,
      "other": 314,
      "ong": 315,
      "bird": 316,
      "ice": 317,
      "na": 318,
      "ree": 319,
      "ca": 320,
      "mad": 321,
      "gr": 322,
      "than": 323,
      ",\"": 324,
      "says": 325,
      "op": 326,
      "mommy": 327,
      "away": 328,
      "toge": 329,
      "together": 330,
      "dad": 331,
      "ss": 332,
      "wat": 333,
      "want": 334,
      "oud": 335,
      "made": 336,
      "started": 337,
      "dd": 338,
      "came": 339,
      "something": 340,
      "sad": 341,
      "good": 342,
      "ie": 343,
      "put": 344,
      "park": 345,
      "ight": 346,
      "if": 347,
      "ited": 348,
      "let": 349,
      "who": 350,
      "got": 351,
      "lu": 352,
      "scar": 353,
      "exc": 354,
      "again": 355,
      "home": 356,
      "mu": 357,
      "ll": 358,
      "ave": 359,
      "get": 360,
      "ried": 361,
      "wal": 362,
      "ep": 363,
      "found": 364,
      "wo": 365,
      "dec": 366,
      "more": 367,
      "ure": 368,
      "qu": 369,
      "hug": 370,
      "pped": 371,
      "playing": 372,
      "ach": 373,
      "ought": 374,
      "by": 375,
      "king": 376,
      "po": 377,
      "liked": 378,
      "sam": 379,
      "things": 380,
      "wh": 381,
      "your": 382,
      "der": 383,
      "ara": 384,
      "excited": 385,
      "yes": 386,
      "sha": 387,
      "ty": 388,
      "decid": 389,
      "fa": 390,
      "dog": 391,
      "af": 392,
      "ny": 393,
      "ous": 394,
      "decided": 395,
      "care": 396,
      "ru": 397,
      "ouse": 398,
      "arn": 399,
      "bu": 400,
      "scared": 401,
      "anna": 402,
      "down": 403,
      "use": 404,
      "take": 405,
      "find": 406,
      "this": 407,
      "will": 408,
      "sara": 409,
      "ju": 410,
      "clo": 411,
      "ate": 412,
      "feel": 413,
      "come": 414,
      "ways": 415,
      "sor": 416,
      "max": 417,
      "our": 418,
      "ang": 419,
      "pre": 420,
      "toys": 421,
      "always": 422,
      "took": 423,
      "about": 424,
      "ble": 425,
      "ers": 426,
      "te": 427,
      "didn": 428,
      "cat": 429,
      "ive": 430,
      "bed": 431,
      "learn": 432,
      "spec": 433,
      "ise": 434,
      "tree": 435,
      "outside": 436,
      "mi": 437,
      "thought": 438,
      "ally": 439,
      "room": 440,
      "ened": 441,
      "know": 442,
      "ched": 443,
      "old": 444,
      "de": 445,
      "fore": 446,
      "ite": 447,
      "wa": 448,
      "sorry": 449,
      "ball": 450,
      "laug": 451,
      "ial": 452,
      "don": 453,
      "run": 454,
      "any": 455,
      "ant": 456,
      "sw": 457,
      "inside": 458,
      "ged": 459,
      "special": 460,
      "knew": 461,
      "ish": 462,
      "ink": 463,
      "sudd": 464,
      "sudden": 465,
      "house": 466,
      "us": 467,
      "never": 468,
      "after": 469,
      "just": 470,
      "red": 471,
      "show": 472,
      "ist": 473,
      "suddenly": 474,
      "lf": 475,
      "much": 476,
      "dre": 477,
      "rab": 478,
      "cle": 479,
      "led": 480,
      "fin": 481,
      "careful": 482,
      "sun": 483,
      "hand": 484,
      "cre": 485,
      "ot": 486,
      "jack": 487,
      "water": 488,
      "sk": 489,
      "ven": 490,
      "gave": 491,
      "arm": 492,
      "tried": 493,
      "into": 494,
      "hed": 495,
      "long": 496,
      "each": 497,
      "ast": 498,
      "box": 499,
      "told": 500,
      "love": 501,
      "proud": 502,
      "over": 503,
      "pa": 504,
      "mia": 505,
      "thank": 506,
      "heard": 507,
      "eat": 508,
      "read": 509,
      "pret": 510,
      "gre": 511,
      "har": 512,
      "cl": 513,
      "br": 514,
      "ump": 515,
      "dy": 516,
      "played": 517,
      "pick": 518,
      "cause": 519,
      "couldn": 520,
      "hugged": 521,
      "because": 522,
      "ion": 523,
      "nice": 524,
      "where": 525,
      "many": 526,
      "ear": 527,
      "ile": 528,
      "right": 529,
      "com": 530,
      "fly": 531,
      "need": 532,
      "unt": 533,
      "off": 534,
      "shed": 535,
      "bear": 536,
      "bit": 537,
      "flow": 538,
      "exp": 539,
      "try": 540,
      "ber": 541,
      "small": 542,
      "ving": 543,
      "lad": 544,
      "shin": 545,
      "ac": 546,
      "bet": 547,
      "anim": 548,
      "animal": 549,
      "oug": 550,
      "ough": 551,
      "ting": 552,
      "learned": 553,
      "fi": 554,
      "iz": 555,
      "even": 556,
      "until": 557,
      "ket": 558,
      "everyone": 559,
      "per": 560,
      "its": 561,
      "self": 562,
      "soon": 563,
      "kind": 564,
      "bea": 565,
      "better": 566,
      "give": 567,
      "ace": 568,
      "bro": 569,
      "pu": 570,
      "urn": 571,
      "hur": 572,
      "best": 573,
      "call": 574,
      "cks": 575,
      "vent": 576,
      "et": 577,
      "ass": 578,
      "bra": 579,
      "cy": 580,
      "tru": 581,
      "spot": 582,
      "gard": 583,
      "garden": 584,
      "ol": 585,
      "rea": 586,
      "beaut": 587,
      "tre": 588,
      "sky": 589,
      "fle": 590,
      "jump": 591,
      "safe": 592,
      "explo": 593,
      "thanked": 594,
      "under": 595,
      "loud": 596,
      "ase": 597,
      "sho": 598,
      "laughed": 599,
      "list": 600,
      "sur": 601,
      "joy": 602,
      "ft": 603,
      "ple": 604,
      "rong": 605,
      "still": 606,
      "rain": 607,
      "iful": 608,
      "beautiful": 609,
      "pt": 610,
      "fam": 611,
      "lots": 612,
      "animals": 613,
      "win": 614,
      "lly": 615,
      "ama": 616,
      "book": 617,
      "turn": 618,
      "stay": 619,
      "bad": 620,
      "ell": 621,
      "won": 622,
      "igh": 623,
      "both": 624,
      "joh": 625,
      "john": 626,
      "ople": 627,
      "hard": 628,
      "ning": 629,
      "cu": 630,
      "people": 631,
      "mum": 632,
      "okay": 633,
      "keep": 634,
      "two": 635,
      "row": 636,
      "angry": 637,
      "lived": 638,
      "brave": 639,
      "ground": 640,
      "ct": 641,
      "ished": 642,
      "should": 643,
      "family": 644,
      "hurt": 645,
      "surpr": 646,
      "walked": 647,
      "share": 648,
      "real": 649,
      "flew": 650,
      "sure": 651,
      "while": 652,
      "ine": 653,
      "fast": 654,
      "lucy": 655,
      "ort": 656,
      "doll": 657,
      "pic": 658,
      "door": 659,
      "lue": 660,
      "sl": 661,
      "kept": 662,
      "called": 663,
      "before": 664,
      "pretty": 665,
      "app": 666,
      "con": 667,
      "clean": 668,
      "may": 669,
      "ised": 670,
      "xt": 671,
      "lot": 672,
      "ane": 673,
      "shiny": 674,
      "going": 675,
      "next": 676,
      "able": 677,
      "noise": 678,
      "clos": 679,
      "kit": 680,
      "opened": 681,
      "why": 682,
      "advent": 683,
      "cry": 684,
      "imp": 685,
      "place": 686,
      "dra": 687,
      "feeling": 688,
      "also": 689,
      "fish": 690,
      "grand": 691,
      "illy": 692,
      "colo": 693,
      "explore": 694,
      "em": 695,
      "uck": 696,
      "mem": 697,
      "has": 698,
      "ild": 699,
      "idea": 700,
      "color": 701,
      "ask": 702,
      "bob": 703,
      "blue": 704,
      "tal": 705,
      "hear": 706,
      "lie": 707,
      "mar": 708,
      "face": 709,
      "nodd": 710,
      "clim": 711,
      "picked": 712,
      "ied": 713,
      "nodded": 714,
      "smile": 715,
      "maybe": 716,
      "set": 717,
      "work": 718,
      "ture": 719,
      "par": 720,
      "ren": 721,
      "ess": 722,
      "head": 723,
      "walking": 724,
      "being": 725,
      "grab": 726,
      "€™": 727,
      "less": 728,
      "ring": 729,
      "adventure": 730,
      "picture": 731,
      "bye": 732,
      "hair": 733,
      "think": 734,
      "listen": 735,
      "ies": 736,
      "food": 737,
      "used": 738,
      "finally": 739,
      "blo": 740,
      "wait": 741,
      "iced": 742,
      "night": 743,
      "looking": 744,
      "dif": 745,
      "ever": 746,
      "bl": 747,
      "remem": 748,
      "walk": 749,
      "ste": 750,
      "eyes": 751,
      "flowers": 752,
      "vo": 753,
      "ious": 754,
      "ught": 755,
      "own": 756,
      "squ": 757,
      "sue": 758,
      "stopped": 759,
      "here": 760,
      "ries": 761,
      "cook": 762,
      "enjoy": 763,
      "great": 764,
      "remember": 765,
      "mean": 766,
      "ized": 767,
      "slide": 768,
      "leave": 769,
      "wonder": 770,
      "mon": 771,
      "quick": 772,
      "truck": 773,
      "dan": 774,
      "hands": 775,
      "stop": 776,
      "ph": 777,
      "irst": 778,
      "watch": 779,
      "near": 780,
      "forest": 781,
      "noticed": 782,
      "import": 783,
      "repl": 784,
      "da": 785,
      "sound": 786,
      "llow": 787,
      "tou": 788,
      "stick": 789,
      "cake": 790,
      "table": 791,
      "tell": 792,
      "amaz": 793,
      "year": 794,
      "cho": 795,
      "showed": 796,
      "rabbit": 797,
      "follow": 798,
      "mag": 799,
      "boat": 800,
      "swing": 801,
      "important": 802,
      "cream": 803,
      "sing": 804,
      "bow": 805,
      "tin": 806,
      "gan": 807,
      "bright": 808,
      "mor": 809,
      "store": 810,
      "swe": 811,
      "ip": 812,
      "feren": 813,
      "does": 814,
      "differen": 815,
      "strong": 816,
      "mis": 817,
      "replied": 818,
      "please": 819,
      "flo": 820,
      "goodbye": 821,
      "rest": 822,
      "watched": 823,
      "gu": 824,
      "ila": 825,
      "bun": 826,
      "dis": 827,
      "voice": 828,
      "quickly": 829,
      "lila": 830,
      "tor": 831,
      "stand": 832,
      "curi": 833,
      "hello": 834,
      "tow": 835,
      "sand": 836,
      "been": 837,
      "became": 838,
      "ner": 839,
      "daddy": 840,
      "different": 841,
      "sarah": 842,
      "first": 843,
      "laugh": 844,
      "ready": 845,
      "warm": 846,
      "ung": 847,
      "high": 848,
      "jane": 849,
      "ummy": 850,
      "dress": 851,
      "anymore": 852,
      "leep": 853,
      "curious": 854,
      "grandma": 855,
      "closer": 856,
      "bor": 857,
      "pie": 858,
      "ond": 859,
      "les": 860,
      "rough": 861,
      "key": 862,
      "open": 863,
      "ten": 864,
      "fav": 865,
      "pul": 866,
      "fro": 867,
      "ired": 868,
      "kid": 869,
      "flower": 870,
      "sit": 871,
      "ba": 872,
      "pain": 873,
      "butter": 874,
      "only": 875,
      "light": 876,
      "joe": 877,
      "fell": 878,
      "grabbed": 879,
      "times": 880,
      "yel": 881,
      "fire": 882,
      "dro": 883,
      "three": 884,
      "chen": 885,
      "cket": 886,
      "ash": 887,
      "kitchen": 888,
      "birds": 889,
      "helped": 890,
      "ff": 891,
      "rock": 892,
      "sees": 893,
      "med": 894,
      "cut": 895,
      "brea": 896,
      "glad": 897,
      "happened": 898,
      "jumped": 899,
      "air": 900,
      "ered": 901,
      "bunny": 902,
      "deli": 903,
      "bal": 904,
      "outed": 905,
      "pare": 906,
      "ow": 907,
      "top": 908,
      "prin": 909,
      "grass": 910,
      "wel": 911,
      "rel": 912,
      "brother": 913,
      "yummy": 914,
      "realized": 915,
      "having": 916,
      "isy": 917,
      "story": 918,
      "shouted": 919,
      "reached": 920,
      "lady": 921,
      "dow": 922,
      "soft": 923,
      "really": 924,
      "game": 925,
      "draw": 926,
      "through": 927,
      "pretend": 928,
      "zy": 929,
      "din": 930,
      "piece": 931,
      "favor": 932,
      "ray": 933,
      "col": 934,
      "wow": 935,
      "favorite": 936,
      "coming": 937,
      "ster": 938,
      "kids": 939,
      "paren": 940,
      "tommy": 941,
      "making": 942,
      "looks": 943,
      "magic": 944,
      "tra": 945,
      "sweet": 946,
      "sometimes": 947,
      "cars": 948,
      "move": 949,
      "done": 950,
      "fix": 951,
      "tired": 952,
      "pond": 953,
      "world": 954,
      "cked": 955,
      "began": 956,
      "ped": 957,
      "catch": 958,
      "waved": 959,
      "himself": 960,
      "touch": 961,
      "ater": 962,
      "cold": 963,
      "hold": 964,
      "prom": 965,
      "funny": 966,
      "sn": 967,
      "cried": 968,
      "another": 969,
      "worry": 970,
      "fill": 971,
      "name": 972,
      "blocks": 973,
      "seen": 974,
      "mouse": 975,
      "swim": 976,
      "green": 977,
      "ons": 978,
      "river": 979,
      "farm": 980,
      "cool": 981,
      "oney": 982,
      "mess": 983,
      "snow": 984,
      "ds": 985,
      "wished": 986,
      "parents": 987,
      "floor": 988,
      "ppy": 989,
      "pro": 990,
      "hind": 991,
      "bag": 992,
      "paper": 993,
      "delic": 994,
      "likes": 995,
      "behind": 996,
      "ient": 997,
      "close": 998,
      "sally": 999,
      "surprise": 1000,
      "cor": 1001,
      "climb": 1002,
      "fl": 1003,
      "turned": 1004,
      "sleep": 1005,
      "sat": 1006,
      "cas": 1007,
      "bab": 1008,
      "doing": 1009,
      "andy": 1010,
      "hole": 1011,
      "ger": 1012,
      "age": 1013,
      "hopped": 1014,
      "worked": 1015,
      "slow": 1016,
      "cla": 1017,
      "pet": 1018,
      "yard": 1019,
      "yellow": 1020,
      "trees": 1021,
      "window": 1022,
      "lesson": 1023,
      "ign": 1024,
      "dark": 1025,
      "benny": 1026,
      "tas": 1027,
      "full": 1028,
      "running": 1029,
      "wear": 1030,
      "plan": 1031,
      "frog": 1032,
      "castle": 1033,
      "wood": 1034,
      "years": 1035,
      "bar": 1036,
      "race": 1037,
      "daisy": 1038,
      "surprised": 1039,
      "bug": 1040,
      "\".": 1041,
      "teddy": 1042,
      "remembered": 1043,
      "sy": 1044,
      "pat": 1045,
      "butterfly": 1046,
      "happily": 1047,
      "baby": 1048,
      "lost": 1049,
      "needed": 1050,
      "held": 1051,
      "anything": 1052,
      "carefully": 1053,
      "buy": 1054,
      "wrong": 1055,
      "duck": 1056,
      "far": 1057,
      "fair": 1058,
      "wind": 1059,
      "dream": 1060,
      "left": 1061,
      "tri": 1062,
      "chil": 1063,
      "hung": 1064,
      "ined": 1065,
      "jim": 1066,
      "billy": 1067,
      "dir": 1068,
      "mat": 1069,
      "creat": 1070,
      "dren": 1071,
      "gen": 1072,
      "followed": 1073,
      "children": 1074,
      "arri": 1075,
      "enjoyed": 1076,
      "someone": 1077,
      "bot": 1078,
      "finished": 1079,
      "ak": 1080,
      "jen": 1081,
      "stran": 1082,
      "hot": 1083,
      "tr": 1084,
      "hill": 1085,
      "agre": 1086,
      "oken": 1087,
      "hid": 1088,
      "tall": 1089,
      "spo": 1090,
      "herself": 1091,
      "everywhere": 1092,
      "friendly": 1093,
      "understand": 1094,
      "zo": 1095,
      "broken": 1096,
      "prince": 1097,
      "tinu": 1098,
      "continu": 1099,
      "might": 1100,
      "ather": 1101,
      "vis": 1102,
      "forgot": 1103,
      "ings": 1104,
      "colors": 1105,
      "ross": 1106,
      "que": 1107,
      "ange": 1108,
      "else": 1109,
      "delicious": 1110,
      "ards": 1111,
      "build": 1112,
      "wants": 1113,
      "asure": 1114,
      "ike": 1115,
      "agreed": 1116,
      "gone": 1117,
      "squir": 1118,
      "ield": 1119,
      "fight": 1120,
      "cra": 1121,
      "lion": 1122,
      "most": 1123,
      "tight": 1124,
      "arrived": 1125,
      "pink": 1126,
      "leaves": 1127,
      "molly": 1128,
      "song": 1129,
      "books": 1130,
      "wonderful": 1131,
      "erous": 1132,
      "filled": 1133,
      "ation": 1134,
      "everything": 1135,
      "land": 1136,
      "coun": 1137,
      "ches": 1138,
      "wi": 1139,
      "squirrel": 1140,
      "later": 1141,
      "art": 1142,
      "continued": 1143,
      "fall": 1144,
      "amy": 1145,
      "whis": 1146,
      "break": 1147,
      "fru": 1148,
      "mother": 1149,
      "scary": 1150,
      "poin": 1151,
      "getting": 1152,
      "dr": 1153,
      "ced": 1154,
      "enough": 1155,
      "icy": 1156,
      "asks": 1157,
      "stayed": 1158,
      "morning": 1159,
      "hungry": 1160,
      "wet": 1161,
      "ence": 1162,
      "moment": 1163,
      "makes": 1164,
      "smiles": 1165,
      "cookies": 1166,
      "stu": 1167,
      "pen": 1168,
      "fas": 1169,
      "pes": 1170,
      "today": 1171,
      "oh": 1172,
      "ze": 1173,
      "tail": 1174,
      "ton": 1175,
      "talk": 1176,
      "bee": 1177,
      "pictures": 1178,
      "beach": 1179,
      "dinner": 1180,
      "listened": 1181,
      "tain": 1182,
      "climbed": 1183,
      "ballo": 1184,
      "others": 1185,
      "amazing": 1186,
      "trying": 1187,
      "mama": 1188,
      "spl": 1189,
      "pack": 1190,
      "mus": 1191,
      "hi": 1192,
      "clothe": 1193,
      "roll": 1194,
      "rew": 1195,
      "kno": 1196,
      "oup": 1197,
      "puppy": 1198,
      "jill": 1199,
      "spark": 1200,
      "clothes": 1201,
      "fect": 1202,
      "few": 1203,
      "miss": 1204,
      "cover": 1205,
      "plain": 1206,
      "sis": 1207,
      "tw": 1208,
      "av": 1209,
      "perfect": 1210,
      "fur": 1211,
      "white": 1212,
      "train": 1213,
      "wall": 1214,
      "ffy": 1215,
      "alone": 1216,
      "sail": 1217,
      "bike": 1218,
      "flu": 1219,
      "dang": 1220,
      "zz": 1221,
      "brown": 1222,
      "sear": 1223,
      "brought": 1224,
      "ance": 1225,
      "grow": 1226,
      "met": 1227,
      "fox": 1228,
      "strange": 1229,
      "waited": 1230,
      "pulled": 1231,
      "ated": 1232,
      "fluffy": 1233,
      "well": 1234,
      "nap": 1235,
      "appear": 1236,
      "pping": 1237,
      "ride": 1238,
      "deep": 1239,
      "woods": 1240,
      "music": 1241,
      "drag": 1242,
      "bath": 1243,
      "wasn": 1244,
      "runs": 1245,
      "moral": 1246,
      "amazed": 1247,
      "thinks": 1248,
      "gi": 1249,
      "hide": 1250,
      "je": 1251,
      "lake": 1252,
      "hor": 1253,
      "pur": 1254,
      "thy": 1255,
      "cloud": 1256,
      "silly": 1257,
      "ling": 1258,
      "flying": 1259,
      "dance": 1260,
      "living": 1261,
      "sc": 1262,
      "treat": 1263,
      "towards": 1264,
      "owner": 1265,
      "pers": 1266,
      "luck": 1267,
      "slowly": 1268,
      "ames": 1269,
      "ises": 1270,
      "grate": 1271,
      "grateful": 1272,
      "field": 1273,
      "belie": 1274,
      "money": 1275,
      "umb": 1276,
      "visit": 1277,
      "faster": 1278,
      "shared": 1279,
      "quie": 1280,
      "mind": 1281,
      "du": 1282,
      "party": 1283,
      "sister": 1284,
      "promised": 1285,
      "cup": 1286,
      "ses": 1287,
      "board": 1288,
      "candy": 1289,
      "ctor": 1290,
      "treasure": 1291,
      "bran": 1292,
      "pieces": 1293,
      "broke": 1294,
      "job": 1295,
      "worried": 1296,
      "colorful": 1297,
      "blan": 1298,
      "quiet": 1299,
      "chair": 1300,
      "mil": 1301,
      "cou": 1302,
      "mr": 1303,
      "bigger": 1304,
      "answ": 1305,
      "dry": 1306,
      "shes": 1307,
      "pass": 1308,
      "dolls": 1309,
      "ele": 1310,
      "gif": 1311,
      "reach": 1312,
      "must": 1313,
      "twin": 1314,
      "outh": 1315,
      "igg": 1316,
      "explain": 1317,
      "join": 1318,
      "mouth": 1319,
      "kis": 1320,
      "snack": 1321,
      "such": 1322,
      "black": 1323,
      "heav": 1324,
      "ming": 1325,
      "scream": 1326,
      "welcome": 1327,
      "ased": 1328,
      "smel": 1329,
      "rot": 1330,
      "farmer": 1331,
      "smart": 1332,
      "words": 1333,
      "helping": 1334,
      "magical": 1335,
      "start": 1336,
      "sign": 1337,
      "dangerous": 1338,
      "mary": 1339,
      "min": 1340,
      "happen": 1341,
      "ment": 1342,
      "dragon": 1343,
      "threw": 1344,
      "dirty": 1345,
      "monkey": 1346,
      "doctor": 1347,
      "princess": 1348,
      "twins": 1349,
      "bowl": 1350,
      "dri": 1351,
      "tower": 1352,
      "crying": 1353,
      "ps": 1354,
      "ose": 1355,
      "ually": 1356,
      "bite": 1357,
      "hoped": 1358,
      "monster": 1359,
      "ves": 1360,
      "same": 1361,
      "ident": 1362,
      "heavy": 1363,
      "bble": 1364,
      "di": 1365,
      "wag": 1366,
      "event": 1367,
      "heal": 1368,
      "plane": 1369,
      "ap": 1370,
      "ourse": 1371,
      "ja": 1372,
      "balloon": 1373,
      "across": 1374,
      "shar": 1375,
      "hig": 1376,
      "swam": 1377,
      "believe": 1378,
      "hu": 1379,
      "wave": 1380,
      "stuck": 1381,
      "stepped": 1382,
      "bas": 1383,
      "wr": 1384,
      "closed": 1385,
      "town": 1386,
      "mit": 1387,
      "without": 1388,
      "tent": 1389,
      "press": 1390,
      "mix": 1391,
      "pull": 1392,
      "feels": 1393,
      "scho": 1394,
      "paint": 1395,
      "school": 1396,
      "teac": 1397,
      "teacher": 1398,
      "takes": 1399,
      "lun": 1400,
      "appeared": 1401,
      "eating": 1402,
      "emma": 1403,
      "button": 1404,
      "cray": 1405,
      "gs": 1406,
      "pow": 1407,
      "phone": 1408,
      "round": 1409,
      "free": 1410,
      "acc": 1411,
      "comfor": 1412,
      "basket": 1413,
      "neigh": 1414,
      "accident": 1415,
      "pushed": 1416,
      "iting": 1417,
      "gentle": 1418,
      "jimmy": 1419,
      "fairy": 1420,
      "mummy": 1421,
      "course": 1422,
      "higher": 1423,
      "shine": 1424,
      "wouldn": 1425,
      "clapped": 1426,
      "blanket": 1427,
      "kiss": 1428,
      "smo": 1429,
      "pop": 1430,
      "stood": 1431,
      "mark": 1432,
      "along": 1433,
      "swings": 1434,
      "games": 1435,
      "chee": 1436,
      "throw": 1437,
      "noises": 1438,
      "turns": 1439,
      "drove": 1440,
      "lone": 1441,
      "eventually": 1442,
      "sna": 1443,
      "hugs": 1444,
      "fence": 1445,
      "stead": 1446,
      "youn": 1447,
      "coin": 1448,
      "str": 1449,
      "mine": 1450,
      "child": 1451,
      "cheered": 1452,
      "moved": 1453,
      "lonely": 1454,
      "ary": 1455,
      "wings": 1456,
      "wish": 1457,
      "stone": 1458,
      "soup": 1459,
      "val": 1460,
      "ney": 1461,
      "jour": 1462,
      "longer": 1463,
      "sea": 1464,
      "sang": 1465,
      "late": 1466,
      "tiny": 1467,
      "ible": 1468,
      "explained": 1469,
      "rub": 1470,
      "nothing": 1471,
      "stories": 1472,
      "hit": 1473,
      "upset": 1474,
      "neck": 1475,
      "wise": 1476,
      "shoes": 1477,
      "singing": 1478,
      "trou": 1479,
      "instead": 1480,
      "secre": 1481,
      "stars": 1482,
      "jar": 1483,
      "though": 1484,
      "adventures": 1485,
      "caught": 1486,
      "eleph": 1487,
      "rocks": 1488,
      "lunch": 1489,
      "add": 1490,
      "tu": 1491,
      "juice": 1492,
      "drink": 1493,
      "owl": 1494,
      "sammy": 1495,
      "stre": 1496,
      "heart": 1497,
      "dropped": 1498,
      "dist": 1499,
      "taking": 1500,
      "bring": 1501,
      "pan": 1502,
      "shook": 1503,
      "sli": 1504,
      "naught": 1505,
      "belong": 1506,
      "ours": 1507,
      "naughty": 1508,
      "ountain": 1509,
      "backyard": 1510,
      "des": 1511,
      "stree": 1512,
      "apple": 1513,
      "fused": 1514,
      "young": 1515,
      "res": 1516,
      "orange": 1517,
      "forget": 1518,
      "pocket": 1519,
      "del": 1520,
      "cow": 1521,
      "mitten": 1522,
      "ship": 1523,
      "nee": 1524,
      "woke": 1525,
      "pig": 1526,
      "bel": 1527,
      "shapes": 1528,
      "whenever": 1529,
      "lucky": 1530,
      "exploring": 1531,
      "comes": 1532,
      "ions": 1533,
      "body": 1534,
      "nearby": 1535,
      "driver": 1536,
      "cal": 1537,
      "nose": 1538,
      "rainbow": 1539,
      "mail": 1540,
      "days": 1541,
      "wondered": 1542,
      "cing": 1543,
      "part": 1544,
      "purple": 1545,
      "coat": 1546,
      "rown": 1547,
      "ugg": 1548,
      "tun": 1549,
      "street": 1550,
      "boun": 1551,
      "sunny": 1552,
      "smell": 1553,
      "sounds": 1554,
      "seemed": 1555,
      "busy": 1556,
      "bottle": 1557,
      "bench": 1558,
      "sick": 1559,
      "relie": 1560,
      "ser": 1561,
      "ect": 1562,
      "sent": 1563,
      "shop": 1564,
      "amp": 1565,
      "arms": 1566,
      "daught": 1567,
      "sitting": 1568,
      "nest": 1569,
      "daughter": 1570,
      "pil": 1571,
      "fit": 1572,
      "fing": 1573,
      "band": 1574,
      "pper": 1575,
      "bucket": 1576,
      "birth": 1577,
      "pra": 1578,
      "ier": 1579,
      "holding": 1580,
      "sug": 1581,
      "secret": 1582,
      "carry": 1583,
      "birthday": 1584,
      "cer": 1585,
      "mach": 1586,
      "cir": 1587,
      "vel": 1588,
      "raid": 1589,
      "afraid": 1590,
      "cute": 1591,
      "forever": 1592,
      "push": 1593,
      "mm": 1594,
      "peace": 1595,
      "wand": 1596,
      "branch": 1597,
      "erful": 1598,
      "sco": 1599,
      "zoom": 1600,
      "twe": 1601,
      "craw": 1602,
      "kite": 1603,
      "gift": 1604,
      "shell": 1605,
      "promise": 1606,
      "pot": 1607,
      "spin": 1608,
      "quest": 1609,
      "loves": 1610,
      "wra": 1611,
      "ars": 1612,
      "gives": 1613,
      "swimming": 1614,
      "hope": 1615,
      "idge": 1616,
      "life": 1617,
      "touched": 1618,
      "huge": 1619,
      "elephant": 1620,
      "bread": 1621,
      "ull": 1622,
      "net": 1623,
      "live": 1624,
      "patient": 1625,
      "gest": 1626,
      "covered": 1627,
      "gl": 1628,
      "letter": 1629,
      "cheese": 1630,
      "uni": 1631,
      "relieved": 1632,
      "hey": 1633,
      "milk": 1634,
      "honey": 1635,
      "accidentally": 1636,
      "mittens": 1637,
      "puts": 1638,
      "creature": 1639,
      "gigg": 1640,
      "colle": 1641,
      "inte": 1642,
      "interest": 1643,
      "sunshine": 1644,
      "cozy": 1645,
      "laughing": 1646,
      "fan": 1647,
      "bush": 1648,
      "kick": 1649,
      "cha": 1650,
      "bru": 1651,
      "onto": 1652,
      "exciting": 1653,
      "test": 1654,
      "jenny": 1655,
      "cave": 1656,
      "word": 1657,
      "roar": 1658,
      "eg": 1659,
      "neighbor": 1660,
      "snowman": 1661,
      "journey": 1662,
      "imag": 1663,
      "ness": 1664,
      "pudd": 1665,
      "shout": 1666,
      "ward": 1667,
      "eas": 1668,
      "smiling": 1669,
      "stor": 1670,
      "pointed": 1671,
      "hop": 1672,
      "ian": 1673,
      "ize": 1674,
      "ade": 1675,
      "road": 1676,
      "searched": 1677,
      "anyone": 1678,
      "suc": 1679,
      "succe": 1680,
      "wom": 1681,
      "act": 1682,
      "bought": 1683,
      "talked": 1684,
      "woman": 1685,
      "splash": 1686,
      "gather": 1687,
      "sandwi": 1688,
      "sharp": 1689,
      "watching": 1690,
      "proble": 1691,
      "rope": 1692,
      "problem": 1693,
      "snake": 1694,
      "healthy": 1695,
      "person": 1696,
      "crayons": 1697,
      "storm": 1698,
      "rose": 1699,
      "trouble": 1700,
      "rat": 1701,
      "smelled": 1702,
      "tasty": 1703,
      "these": 1704,
      "ens": 1705,
      "spid": 1706,
      "ducks": 1707,
      "log": 1708,
      "wheel": 1709,
      "irt": 1710,
      "clouds": 1711,
      "lar": 1712,
      "nic": 1713,
      "spoon": 1714,
      "pile": 1715,
      "apples": 1716,
      "comfortable": 1717,
      "emily": 1718,
      "whi": 1719,
      "shining": 1720,
      "wide": 1721,
      "zoo": 1722,
      "organ": 1723,
      "card": 1724,
      "interesting": 1725,
      "wash": 1726,
      "ching": 1727,
      "circle": 1728,
      "ones": 1729,
      "bark": 1730,
      "clever": 1731,
      "bubble": 1732,
      "feather": 1733,
      "respec": 1734,
      "dest": 1735,
      "matter": 1736,
      "ia": 1737,
      "mel": 1738,
      "inv": 1739,
      "pract": 1740,
      "which": 1741,
      "ently": 1742,
      "eag": 1743,
      "horse": 1744,
      "isa": 1745,
      "fron": 1746,
      "ban": 1747,
      "front": 1748,
      "seat": 1749,
      "screamed": 1750,
      "sie": 1751,
      "orm": 1752,
      "goes": 1753,
      "epend": 1754,
      "mud": 1755,
      "prot": 1756,
      "tries": 1757,
      "nut": 1758,
      "shelf": 1759,
      "ek": 1760,
      "puzz": 1761,
      "danced": 1762,
      "answer": 1763,
      "rolled": 1764,
      "berries": 1765,
      "fruit": 1766,
      "fli": 1767,
      "asleep": 1768,
      "vill": 1769,
      "myster": 1770,
      "teach": 1771,
      "gy": 1772,
      "jake": 1773,
      "worm": 1774,
      "spotted": 1775,
      "confused": 1776,
      "corn": 1777,
      "whole": 1778,
      "path": 1779,
      "lovely": 1780,
      "mir": 1781,
      "lock": 1782,
      "slid": 1783,
      "places": 1784,
      "lisa": 1785,
      "tee": 1786,
      "wearing": 1787,
      "sharing": 1788,
      "string": 1789,
      "forgive": 1790,
      "wild": 1791,
      "teeth": 1792,
      "dirt": 1793,
      "giant": 1794,
      "gently": 1795,
      "valu": 1796,
      "past": 1797,
      "thin": 1798,
      "impress": 1799,
      "ular": 1800,
      "minut": 1801,
      "pill": 1802,
      "tasted": 1803,
      "rude": 1804,
      "faces": 1805,
      "couch": 1806,
      "respect": 1807,
      "shr": 1808,
      "tool": 1809,
      "calm": 1810,
      "present": 1811,
      "tur": 1812,
      "grandpa": 1813,
      "spent": 1814,
      "ob": 1815,
      "lay": 1816,
      "rich": 1817,
      "bugs": 1818,
      "pretended": 1819,
      "vie": 1820,
      "oce": 1821,
      "ocean": 1822,
      "kitty": 1823,
      "chick": 1824,
      "feet": 1825,
      "tomor": 1826,
      "pour": 1827,
      "tomorrow": 1828,
      "finish": 1829,
      "fighting": 1830,
      "spider": 1831,
      "machine": 1832,
      "chocol": 1833,
      "sack": 1834,
      "tea": 1835,
      "picnic": 1836,
      "grace": 1837,
      "ator": 1838,
      "oth": 1839,
      "inc": 1840,
      "write": 1841,
      "corner": 1842,
      "kets": 1843,
      "step": 1844,
      "drive": 1845,
      "ashed": 1846,
      "bell": 1847,
      "building": 1848,
      "cookie": 1849,
      "paw": 1850,
      "oven": 1851,
      "joke": 1852,
      "ladder": 1853,
      "sque": 1854,
      "smooth": 1855,
      "ti": 1856,
      "peaceful": 1857,
      "fold": 1858,
      "furry": 1859,
      "helpful": 1860,
      "ann": 1861,
      "lace": 1862,
      "spe": 1863,
      "umber": 1864,
      "stair": 1865,
      "hiding": 1866,
      "last": 1867,
      "trip": 1868,
      "shy": 1869,
      "remind": 1870,
      "hang": 1871,
      "tid": 1872,
      "true": 1873,
      "cannot": 1874,
      "whistle": 1875,
      "mountain": 1876,
      "spread": 1877,
      "blew": 1878,
      "seek": 1879,
      "cele": 1880,
      "talking": 1881,
      "spit": 1882,
      "leaf": 1883,
      "chocolate": 1884,
      "sol": 1885,
      "carrot": 1886,
      "crab": 1887,
      "embar": 1888,
      "char": 1889,
      "shake": 1890,
      "stret": 1891,
      "embarr": 1892,
      "foot": 1893,
      "wore": 1894,
      "spray": 1895,
      "pool": 1896,
      "rex": 1897,
      "waiting": 1898,
      "songs": 1899,
      "puddle": 1900,
      "knee": 1901,
      "ighed": 1902,
      "trust": 1903,
      "embarrass": 1904,
      "necklace": 1905,
      "eager": 1906,
      "den": 1907,
      "ity": 1908,
      "kin": 1909,
      "ye": 1910,
      "poli": 1911,
      "chased": 1912,
      "plant": 1913,
      "rots": 1914,
      "moon": 1915,
      "fixed": 1916,
      "stir": 1917,
      "ert": 1918,
      "cage": 1919,
      "barked": 1920,
      "peter": 1921,
      "large": 1922,
      "ult": 1923,
      "selfish": 1924,
      "lves": 1925,
      "izz": 1926,
      "banan": 1927,
      "carrots": 1928,
      "celebr": 1929,
      "cloth": 1930,
      "taste": 1931,
      "line": 1932,
      "creative": 1933,
      "tidy": 1934,
      "plate": 1935,
      "cur": 1936,
      "cross": 1937,
      "scre": 1938,
      "rag": 1939,
      "knocked": 1940,
      "colour": 1941,
      "count": 1942,
      "hears": 1943,
      "tells": 1944,
      "shirt": 1945,
      "block": 1946,
      "spicy": 1947,
      "village": 1948,
      "missed": 1949,
      "jung": 1950,
      "cord": 1951,
      "ipped": 1952,
      "jungle": 1953,
      "decor": 1954,
      "embarrassed": 1955,
      "gray": 1956,
      "kitten": 1957,
      "pin": 1958,
      "hero": 1959,
      "jog": 1960,
      "stra": 1961,
      "clear": 1962,
      "treats": 1963,
      "vege": 1964,
      "vegetable": 1965,
      "van": 1966,
      "cop": 1967,
      "asha": 1968,
      "sticks": 1969,
      "forward": 1970,
      "jumping": 1971,
      "sup": 1972,
      "oin": 1973,
      "hone": 1974,
      "emp": 1975,
      "save": 1976,
      "elly": 1977,
      "glow": 1978,
      "legs": 1979,
      "bus": 1980,
      "robot": 1981,
      "empty": 1982,
      "ending": 1983,
      "gets": 1984,
      "sheep": 1985,
      "meet": 1986,
      "pizz": 1987,
      "fre": 1988,
      "umpy": 1989,
      "gold": 1990,
      "liz": 1991,
      "appoin": 1992,
      "grew": 1993,
      "stairs": 1994,
      "honest": 1995,
      "tightly": 1996,
      "bb": 1997,
      "landed": 1998,
      "deter": 1999,
      "disappoin": 2000,
      "tv": 2001,
      "almost": 2002,
      "pillow": 2003,
      "fred": 2004,
      "leo": 2005,
      "brush": 2006,
      "sour": 2007,
      "seed": 2008,
      "mmer": 2009,
      "ashamed": 2010,
      "nods": 2011,
      "pay": 2012,
      "meant": 2013,
      "breath": 2014,
      "fear": 2015,
      "alice": 2016,
      "johnny": 2017,
      "usu": 2018,
      "poor": 2019,
      "protect": 2020,
      "lemon": 2021,
      "police": 2022,
      "mic": 2023,
      "jam": 2024,
      "adow": 2025,
      "meadow": 2026,
      "understood": 2027,
      "gun": 2028,
      "carried": 2029,
      "drew": 2030,
      "jewel": 2031,
      "yelled": 2032,
      "gas": 2033,
      "witch": 2034,
      "pizza": 2035,
      "burn": 2036,
      "os": 2037,
      "cape": 2038,
      "balls": 2039,
      "note": 2040,
      "tie": 2041,
      "success": 2042,
      "snacks": 2043,
      "œi": 2044,
      "polit": 2045,
      "ugly": 2046,
      "sparkly": 2047,
      "thankful": 2048,
      "warn": 2049,
      "ank": 2050,
      "polite": 2051,
      "sau": 2052,
      "hours": 2053,
      "bored": 2054,
      "bat": 2055,
      "disappointed": 2056,
      "ni": 2057,
      "packed": 2058,
      "knowing": 2059,
      "hospit": 2060,
      "hospital": 2061,
      "vase": 2062,
      "pri": 2063,
      "tweet": 2064,
      "jelly": 2065,
      "blow": 2066,
      "group": 2067,
      "flies": 2068,
      "plants": 2069,
      "queen": 2070,
      "frustr": 2071,
      "vous": 2072,
      "hidden": 2073,
      "easy": 2074,
      "generous": 2075,
      "coura": 2076,
      "standing": 2077,
      "shore": 2078,
      "sleepy": 2079,
      "cr": 2080,
      "returned": 2081,
      "cries": 2082,
      "puzzle": 2083,
      "feed": 2084,
      "tic": 2085,
      "pas": 2086,
      "rocket": 2087,
      "messy": 2088,
      "tears": 2089,
      "ken": 2090,
      "fancy": 2091,
      "waves": 2092,
      "bubbles": 2093,
      "sighed": 2094,
      "flag": 2095,
      "collect": 2096,
      "tro": 2097,
      "berry": 2098,
      "case": 2099,
      "sandwich": 2100,
      "pir": 2101,
      "leta": 2102,
      "bedroom": 2103,
      "sold": 2104,
      "powerful": 2105,
      "bul": 2106,
      "frustrated": 2107,
      "taught": 2108,
      "scarf": 2109,
      "chew": 2110,
      "deer": 2111,
      "kissed": 2112,
      "crown": 2113,
      "erpill": 2114,
      "caterpill": 2115,
      "space": 2116,
      "twirl": 2117,
      "tig": 2118,
      "fla": 2119,
      "boring": 2120,
      "ignor": 2121,
      "fine": 2122,
      "era": 2123,
      "dle": 2124,
      "sage": 2125,
      "flut": 2126,
      "nervous": 2127,
      "spoil": 2128,
      "rad": 2129,
      "towel": 2130,
      "mysterious": 2131,
      "dancing": 2132,
      "mid": 2133,
      "clown": 2134,
      "often": 2135,
      "dino": 2136,
      "rank": 2137,
      "passed": 2138,
      "fig": 2139,
      "whisper": 2140,
      "wolf": 2141,
      "working": 2142,
      "yourself": 2143,
      "minutes": 2144,
      "leg": 2145,
      "mined": 2146,
      "determined": 2147,
      "chest": 2148,
      "nel": 2149,
      "issor": 2150,
      "scissor": 2151,
      "fil": 2152,
      "grumpy": 2153,
      "keeper": 2154,
      "bridge": 2155,
      "excite": 2156,
      "closet": 2157,
      "ensive": 2158,
      "gate": 2159,
      "expensive": 2160,
      "scissors": 2161,
      "class": 2162,
      "picks": 2163,
      "gathered": 2164,
      "finger": 2165,
      "boss": 2166,
      "dogs": 2167,
      "saved": 2168,
      "susie": 2169,
      "caterpillar": 2170,
      "known": 2171,
      "wagged": 2172,
      "week": 2173,
      "wake": 2174,
      "drum": 2175,
      "saur": 2176,
      "usual": 2177,
      "licked": 2178,
      "astic": 2179,
      "boys": 2180,
      "answered": 2181,
      "orn": 2182,
      "exam": 2183,
      "hopping": 2184,
      "fu": 2185,
      "dinosaur": 2186,
      "cand": 2187,
      "ror": 2188,
      "mistake": 2189,
      "excitement": 2190,
      "taken": 2191,
      "stuff": 2192,
      "knight": 2193,
      "ates": 2194,
      "ella": 2195,
      "lazy": 2196,
      "medic": 2197,
      "change": 2198,
      "drawing": 2199,
      "vegetables": 2200,
      "chir": 2201,
      "pair": 2202,
      "number": 2203,
      "lif": 2204,
      "walks": 2205,
      "bone": 2206,
      "pec": 2207,
      "illed": 2208,
      "middle": 2209,
      "form": 2210,
      "rid": 2211,
      "allow": 2212,
      "fruits": 2213,
      "eggs": 2214,
      "lose": 2215,
      "giggled": 2216,
      "ita": 2217,
      "cri": 2218,
      "ruined": 2219,
      "ially": 2220,
      "glass": 2221,
      "medicine": 2222,
      "cap": 2223,
      "smelly": 2224,
      "sugar": 2225,
      "father": 2226,
      "fake": 2227,
      "bathroom": 2228,
      "asking": 2229,
      "sting": 2230,
      "sweetie": 2231,
      "espec": 2232,
      "especially": 2233,
      "cher": 2234,
      "feathers": 2235,
      "painting": 2236,
      "match": 2237,
      "tape": 2238,
      "stones": 2239,
      "sight": 2240,
      "iness": 2241,
      "aser": 2242,
      "team": 2243,
      "pray": 2244,
      "moving": 2245,
      "nod": 2246,
      "distance": 2247,
      "weak": 2248,
      "lead": 2249,
      "wip": 2250,
      "lying": 2251,
      "pleased": 2252,
      "drank": 2253,
      "bake": 2254,
      "splashed": 2255,
      "tiger": 2256,
      "gra": 2257,
      "yours": 2258,
      "son": 2259,
      "toes": 2260,
      "calling": 2261,
      "rela": 2262,
      "boo": 2263,
      "order": 2264,
      "flash": 2265,
      "sell": 2266,
      "mirror": 2267,
      "eld": 2268,
      "soar": 2269,
      "soap": 2270,
      "relax": 2271,
      "locked": 2272,
      "sailed": 2273,
      "glue": 2274,
      "pete": 2275,
      "tub": 2276,
      "suggest": 2277,
      "penny": 2278,
      "itch": 2279,
      "noisy": 2280,
      "disappeared": 2281,
      "measure": 2282,
      "wro": 2283,
      "wrote": 2284,
      "ird": 2285,
      "giving": 2286,
      "wha": 2287,
      "incred": 2288,
      "izzy": 2289,
      "yal": 2290,
      "aged": 2291,
      "thanks": 2292,
      "moms": 2293,
      "check": 2294,
      "decide": 2295,
      "become": 2296,
      "bobby": 2297,
      "juicy": 2298,
      "playground": 2299,
      "bill": 2300,
      "ging": 2301,
      "alous": 2302,
      "jealous": 2303,
      "shows": 2304,
      "rare": 2305,
      "sil": 2306,
      "questions": 2307,
      "using": 2308,
      "cro": 2309,
      "dol": 2310,
      "horn": 2311,
      "crawled": 2312,
      "dig": 2313,
      "eye": 2314,
      "skipped": 2315,
      "mrs": 2316,
      "elder": 2317,
      "famous": 2318,
      "dolph": 2319,
      "cleaned": 2320,
      "motor": 2321,
      "micro": 2322,
      "gara": 2323,
      "those": 2324,
      "incredible": 2325,
      "four": 2326,
      "tory": 2327,
      "garage": 2328,
      "needs": 2329,
      "gue": 2330,
      "trucks": 2331,
      "loyal": 2332,
      "wned": 2333,
      "shoot": 2334,
      "lid": 2335,
      "chang": 2336,
      "ating": 2337,
      "tag": 2338,
      "hose": 2339,
      "umbled": 2340,
      "organized": 2341,
      "lift": 2342,
      "sword": 2343,
      "illi": 2344,
      "cil": 2345,
      "comp": 2346,
      "elderly": 2347,
      "wrapped": 2348,
      "dish": 2349,
      "lea": 2350,
      "content": 2351,
      "happening": 2352,
      "chase": 2353,
      "stri": 2354,
      "realised": 2355,
      "guess": 2356,
      "borrow": 2357,
      "branches": 2358,
      "squee": 2359,
      "whale": 2360,
      "fic": 2361,
      "discovered": 2362,
      "men": 2363,
      "unusual": 2364,
      "hurts": 2365,
      "balloons": 2366,
      "turtle": 2367,
      "extra": 2368,
      "figure": 2369,
      "kni": 2370,
      "pencil": 2371,
      "knife": 2372,
      "diffic": 2373,
      "thick": 2374,
      "suit": 2375,
      "coco": 2376,
      "ants": 2377,
      "louder": 2378,
      "selves": 2379,
      "boxes": 2380,
      "mandy": 2381,
      "asing": 2382,
      "smoke": 2383,
      "umble": 2384,
      "kindness": 2385,
      "ddy": 2386,
      "balance": 2387,
      "mighty": 2388,
      "zed": 2389,
      "zip": 2390,
      "born": 2391,
      "snugg": 2392,
      "bottom": 2393,
      "lamp": 2394,
      "uncle": 2395,
      "difficult": 2396,
      "unique": 2397,
      "toug": 2398,
      "bloom": 2399,
      "supp": 2400,
      "au": 2401,
      "colourful": 2402,
      "laughs": 2403,
      "added": 2404,
      "buzz": 2405,
      "ears": 2406,
      "eng": 2407,
      "offered": 2408,
      "spun": 2409,
      "straw": 2410,
      "imed": 2411,
      "map": 2412,
      "swan": 2413,
      "pee": 2414,
      "ellie": 2415,
      "dolphin": 2416,
      "pump": 2417,
      "pal": 2418,
      "chicken": 2419,
      "adventur": 2420,
      "coins": 2421,
      "barn": 2422,
      "banana": 2423,
      "dizzy": 2424,
      "bella": 2425,
      "goat": 2426,
      "breakfast": 2427,
      "market": 2428,
      "ga": 2429,
      "norm": 2430,
      "vide": 2431,
      "?\".": 2432,
      "bald": 2433,
      "ature": 2434,
      "meal": 2435,
      "runk": 2436,
      "adventurous": 2437,
      "sadly": 2438,
      "falls": 2439,
      "vest": 2440,
      "tough": 2441,
      "managed": 2442,
      "yo": 2443,
      "lifted": 2444,
      "pointing": 2445,
      "ately": 2446,
      "helps": 2447,
      "stub": 2448,
      "dreamed": 2449,
      "fat": 2450,
      "compet": 2451,
      "wagon": 2452,
      "bounce": 2453,
      "bossy": 2454,
      "grown": 2455,
      "buttons": 2456,
      "harder": 2457,
      "normal": 2458,
      "apo": 2459,
      "learning": 2460,
      "yell": 2461,
      "cheerful": 2462,
      "cam": 2463,
      "weird": 2464,
      "cudd": 2465,
      "impressed": 2466,
      "sca": 2467,
      "shape": 2468,
      "loudly": 2469,
      "aunt": 2470,
      "apolog": 2471,
      "skin": 2472,
      "competit": 2473,
      "belonged": 2474,
      "depend": 2475,
      "search": 2476,
      "angel": 2477,
      "dave": 2478,
      "hats": 2479,
      "choose": 2480,
      "stubborn": 2481,
      "scare": 2482,
      "houses": 2483,
      "knows": 2484,
      "ero": 2485,
      "ilt": 2486,
      "fool": 2487,
      "nur": 2488,
      "agree": 2489,
      "ducky": 2490,
      "nemo": 2491,
      "against": 2492,
      "sal": 2493,
      "enjoying": 2494,
      "fright": 2495,
      "means": 2496,
      "record": 2497,
      "favour": 2498,
      "sty": 2499,
      "slipped": 2500,
      "city": 2501,
      "brothers": 2502,
      "brilli": 2503,
      "happiness": 2504,
      "edge": 2505,
      "bitter": 2506,
      "foolish": 2507,
      "batter": 2508,
      "brilliant": 2509,
      "shells": 2510,
      "gem": 2511,
      "excitedly": 2512,
      "safely": 2513,
      "pumpkin": 2514,
      "favourite": 2515,
      "ail": 2516,
      "fridge": 2517,
      "law": 2518,
      "shark": 2519,
      "circles": 2520,
      "guit": 2521,
      "acce": 2522,
      "fier": 2523,
      "crack": 2524,
      "shadow": 2525,
      "bby": 2526,
      "office": 2527,
      "clap": 2528,
      "already": 2529,
      "libr": 2530,
      "courage": 2531,
      "birdie": 2532,
      "port": 2533,
      "ination": 2534,
      "dreams": 2535,
      "obed": 2536,
      "walls": 2537,
      "vi": 2538,
      "island": 2539,
      "bobo": 2540,
      "rh": 2541,
      "successful": 2542,
      "notice": 2543,
      "clay": 2544,
      "sounded": 2545,
      "egg": 2546,
      "saying": 2547,
      "cab": 2548,
      "reli": 2549,
      "jac": 2550,
      "mixed": 2551,
      "twee": 2552,
      "obedient": 2553,
      "stream": 2554,
      "fierce": 2555,
      "cart": 2556,
      "terri": 2557,
      "trunk": 2558,
      "roof": 2559,
      "fresh": 2560,
      "earth": 2561,
      "bags": 2562,
      "nosy": 2563,
      "wing": 2564,
      "lights": 2565,
      "escape": 2566,
      "harm": 2567,
      "smaller": 2568,
      "reliable": 2569,
      "stru": 2570,
      "movie": 2571,
      "weal": 2572,
      "swee": 2573,
      "dependable": 2574,
      "graceful": 2575,
      "guitar": 2576,
      "soph": 2577,
      "excla": 2578,
      "rubbed": 2579,
      "poured": 2580,
      "tunnel": 2581,
      "kim": 2582,
      "stronger": 2583,
      "joey": 2584,
      "crayon": 2585,
      "study": 2586,
      "invited": 2587,
      "nicely": 2588,
      "tweety": 2589,
      "exclaimed": 2590,
      "useful": 2591,
      "cleaning": 2592,
      "vet": 2593,
      "tools": 2594,
      "abo": 2595,
      "suggested": 2596,
      "dead": 2597,
      "above": 2598,
      "independ": 2599,
      "proudly": 2600,
      "lean": 2601,
      "counted": 2602,
      "scrat": 2603,
      "bean": 2604,
      "showing": 2605,
      "dough": 2606,
      "beep": 2607,
      "ado": 2608,
      "fingers": 2609,
      "frightened": 2610,
      "spinning": 2611,
      "bushes": 2612,
      "parrot": 2613,
      "frag": 2614,
      "ured": 2615,
      "anc": 2616,
      "steal": 2617,
      "tummy": 2618,
      "bees": 2619,
      "hoop": 2620,
      "twig": 2621,
      "thoughtful": 2622,
      "explored": 2623,
      "joined": 2624,
      "aced": 2625,
      "stumbled": 2626,
      "spoiled": 2627,
      "cabin": 2628,
      "fountain": 2629,
      "stat": 2630,
      "kicked": 2631,
      "ancient": 2632,
      "stove": 2633,
      "arrow": 2634,
      "themselves": 2635,
      "toma": 2636,
      "brightly": 2637,
      "tele": 2638,
      "wiped": 2639,
      "valuable": 2640,
      "changed": 2641,
      "beak": 2642,
      "rode": 2643,
      "yarn": 2644,
      "guard": 2645,
      "enorm": 2646,
      "popcorn": 2647,
      "enormous": 2648,
      "independent": 2649,
      "built": 2650,
      "diam": 2651,
      "dge": 2652,
      "lola": 2653,
      "snee": 2654,
      "diamond": 2655,
      "practice": 2656,
      "pi": 2657,
      "rescu": 2658,
      "yuck": 2659,
      "delicate": 2660,
      "statu": 2661,
      "orig": 2662,
      "fragile": 2663,
      "seem": 2664,
      "post": 2665,
      "kinds": 2666,
      "anut": 2667,
      "peanut": 2668,
      "tem": 2669,
      "snif": 2670,
      "load": 2671,
      "marble": 2672,
      "dove": 2673,
      "reminded": 2674,
      "velo": 2675,
      "inal": 2676,
      "wrap": 2677,
      "tered": 2678,
      "mas": 2679,
      "chirp": 2680,
      "ale": 2681,
      "thirst": 2682,
      "nurse": 2683,
      "orge": 2684,
      "shone": 2685,
      "holds": 2686,
      "design": 2687,
      "half": 2688,
      "mes": 2689,
      "envelo": 2690,
      "pige": 2691,
      "screen": 2692,
      "ery": 2693,
      "adm": 2694,
      "flute": 2695,
      "admired": 2696,
      "hun": 2697,
      "tank": 2698,
      "clock": 2699,
      "original": 2700,
      "playful": 2701,
      "mole": 2702,
      "spring": 2703,
      "beetle": 2704,
      "goal": 2705,
      "nature": 2706,
      "bump": 2707,
      "croco": 2708,
      "stup": 2709,
      "solve": 2710,
      "stupid": 2711,
      "reg": 2712,
      "yet": 2713,
      "whispered": 2714,
      "finding": 2715,
      "unknown": 2716,
      "painted": 2717,
      "glo": 2718,
      "clu": 2719,
      "camera": 2720,
      "pon": 2721,
      "paul": 2722,
      "umbers": 2723,
      "lee": 2724,
      "power": 2725,
      "serious": 2726,
      "crocod": 2727,
      "wealthy": 2728,
      "friendship": 2729,
      "radi": 2730,
      "tern": 2731,
      "thirsty": 2732,
      "wards": 2733,
      "salad": 2734,
      "illa": 2735,
      "rushed": 2736,
      "march": 2737,
      "strugg": 2738,
      "spend": 2739,
      "sleeping": 2740,
      "collec": 2741,
      "clum": 2742,
      "picking": 2743,
      "jolly": 2744,
      "flex": 2745,
      "ighted": 2746,
      "allowed": 2747,
      "erry": 2748,
      "cheer": 2749,
      "raced": 2750,
      "pebble": 2751,
      "toast": 2752,
      "opens": 2753,
      "print": 2754,
      "delighted": 2755,
      "cone": 2756,
      "oc": 2757,
      "cane": 2758,
      "fed": 2759,
      "comput": 2760,
      "seeds": 2761,
      "roy": 2762,
      "delight": 2763,
      "flashlight": 2764,
      "alex": 2765,
      "robe": 2766,
      "metal": 2767,
      "mike": 2768,
      "chose": 2769,
      "compass": 2770,
      "guil": 2771,
      "george": 2772,
      "guilty": 2773,
      "moder": 2774,
      "boats": 2775,
      "stops": 2776,
      "washed": 2777,
      "forth": 2778,
      "memor": 2779,
      "dom": 2780,
      "kay": 2781,
      "searching": 2782,
      "ended": 2783,
      "gum": 2784,
      "vice": 2785,
      "patch": 2786,
      "numbers": 2787,
      "wed": 2788,
      "thunder": 2789,
      "hairy": 2790,
      "wander": 2791,
      "telling": 2792,
      "ges": 2793,
      "hay": 2794,
      "clumsy": 2795,
      "toby": 2796,
      "hammer": 2797,
      "view": 2798,
      "acorn": 2799,
      "regular": 2800,
      "bled": 2801,
      "ugged": 2802,
      "barber": 2803,
      "flexible": 2804,
      "sauce": 2805,
      "leaving": 2806,
      "dull": 2807,
      "goose": 2808,
      "pota": 2809,
      "handed": 2810,
      "modern": 2811,
      "lish": 2812,
      "pepper": 2813,
      "rec": 2814,
      "tti": 2815,
      "meow": 2816,
      "uring": 2817,
      "iver": 2818,
      "lives": 2819,
      "missing": 2820,
      "dreaming": 2821,
      "prize": 2822,
      "terrible": 2823,
      "rac": 2824,
      "tooth": 2825,
      "verse": 2826,
      "!\".": 2827,
      "engine": 2828,
      "avo": 2829,
      "ject": 2830,
      "spilled": 2831,
      "ya": 2832,
      "brace": 2833,
      "destroy": 2834,
      "pirate": 2835,
      "noon": 2836,
      "cereal": 2837,
      "driving": 2838,
      "sink": 2839,
      "speed": 2840,
      "jug": 2841,
      "lli": 2842,
      "biggest": 2843,
      "rella": 2844,
      "stack": 2845,
      "cube": 2846,
      "umbrella": 2847,
      "hetti": 2848,
      "spag": 2849,
      "statue": 2850,
      "spaghetti": 2851,
      "towers": 2852,
      "popular": 2853,
      "envelope": 2854,
      "lolli": 2855,
      "nobody": 2856,
      "sne": 2857,
      "stage": 2858,
      "handle": 2859,
      "peeked": 2860,
      "compassion": 2861,
      "careless": 2862,
      "doesn": 2863,
      "rece": 2864,
      "crazy": 2865,
      "carrying": 2866,
      "cran": 2867,
      "square": 2868,
      "pattern": 2869,
      "lollipop": 2870,
      "tied": 2871,
      "host": 2872,
      "pup": 2873,
      "fort": 2874,
      "deliver": 2875,
      "scat": 2876,
      "jacket": 2877,
      "polly": 2878,
      "rise": 2879,
      "hurry": 2880,
      "shocked": 2881,
      "reward": 2882,
      "desk": 2883,
      "crocodile": 2884,
      "coll": 2885,
      "slides": 2886,
      "ingred": 2887,
      "ingredient": 2888,
      "scale": 2889,
      "cheap": 2890,
      "guin": 2891,
      "penguin": 2892,
      "computer": 2893,
      "truth": 2894,
      "complet": 2895,
      "si": 2896,
      "polish": 2897,
      "thinking": 2898,
      "five": 2899,
      "fork": 2900,
      "wheels": 2901,
      "bracelet": 2902,
      "ordin": 2903,
      "shiver": 2904,
      "impressive": 2905,
      "ordinary": 2906,
      "hen": 2907,
      "drop": 2908,
      "super": 2909,
      "travel": 2910,
      "dona": 2911,
      "reading": 2912,
      "ines": 2913,
      "gasped": 2914,
      "gor": 2915,
      "imagined": 2916,
      "tled": 2917,
      "trash": 2918,
      "ither": 2919,
      "rug": 2920,
      "early": 2921,
      "poppy": 2922,
      "waf": 2923,
      "intell": 2924,
      "collar": 2925,
      "intellig": 2926,
      "crane": 2927,
      "sandy": 2928,
      "œwhat": 2929,
      "return": 2930,
      "jumps": 2931,
      "aid": 2932,
      "hipp": 2933,
      "ghost": 2934,
      "atta": 2935,
      "advice": 2936,
      "butterflies": 2937,
      "serve": 2938,
      "mush": 2939,
      "crawl": 2940,
      "doors": 2941,
      "pho": 2942,
      "comb": 2943,
      "spoke": 2944,
      "pigeon": 2945,
      "mushroom": 2946,
      "buddy": 2947,
      "stranger": 2948,
      "names": 2949,
      "waffle": 2950,
      "ience": 2951,
      "env": 2952,
      "enth": 2953,
      "library": 2954,
      "bri": 2955,
      "sses": 2956,
      "windows": 2957,
      "create": 2958,
      "oo": 2959,
      "persist": 2960,
      "bent": 2961,
      "beauty": 2962,
      "sophie": 2963,
      "stickers": 2964,
      "nuts": 2965,
      "celebrate": 2966,
      "stal": 2967,
      "hook": 2968,
      "usi": 2969,
      "growing": 2970,
      "enthusi": 2971,
      "œleta": 2972,
      "cakes": 2973,
      "ingredients": 2974,
      "skip": 2975,
      "uncomfortable": 2976,
      "torn": 2977,
      "warned": 2978,
      "pale": 2979,
      "photo": 2980,
      "discover": 2981,
      "ahead": 2982,
      "counting": 2983,
      "ith": 2984,
      "sorts": 2985,
      "flour": 2986,
      "sparkled": 2987,
      "shut": 2988,
      "parade": 2989,
      "question": 2990,
      "letters": 2991,
      "sofa": 2992,
      "cooking": 2993,
      "harmless": 2994,
      "station": 2995,
      "competitive": 2996,
      "complete": 2997,
      "ages": 2998,
      "pretending": 2999,
      "lizard": 3000,
      "œyes": 3001,
      "anx": 3002,
      "cocoa": 3003,
      "hunter": 3004,
      "pony": 3005,
      "gloom": 3006,
      "sandwiches": 3007,
      "pian": 3008,
      "yay": 3009,
      "mailbox": 3010,
      "chance": 3011,
      "inde": 3012,
      "otter": 3013,
      "cture": 3014,
      "ley": 3015,
      "ignorant": 3016,
      "reci": 3017,
      "sunflower": 3018,
      "badly": 3019,
      "ckets": 3020,
      "suppl": 3021,
      "anxious": 3022,
      "unk": 3023,
      "placed": 3024,
      "bin": 3025,
      "humble": 3026,
      "quack": 3027,
      "pasta": 3028,
      "nail": 3029,
      "melon": 3030,
      "triang": 3031,
      "vol": 3032,
      "piano": 3033,
      "trap": 3034,
      "tweetie": 3035,
      "cards": 3036,
      "snuggled": 3037,
      "base": 3038,
      "neat": 3039,
      "disgu": 3040,
      "intelligent": 3041,
      "dug": 3042,
      "zi": 3043,
      "rema": 3044,
      "beg": 3045,
      "twirled": 3046,
      "bull": 3047,
      "vroom": 3048,
      "web": 3049,
      "couldna": 3050,
      "lim": 3051,
      "thie": 3052,
      "deaf": 3053,
      "persistent": 3054,
      "fearful": 3055,
      "seal": 3056,
      "refused": 3057,
      "rules": 3058,
      "pants": 3059,
      "chasing": 3060,
      "cupboard": 3061,
      "steps": 3062,
      "shaking": 3063,
      "sity": 3064,
      "charming": 3065,
      "gloomy": 3066,
      "jet": 3067,
      "club": 3068,
      "tuna": 3069,
      "hippo": 3070,
      "starts": 3071,
      "squash": 3072,
      "leash": 3073,
      "gir": 3074,
      "trick": 3075,
      "attra": 3076,
      "creatures": 3077,
      "track": 3078,
      "ina": 3079,
      "value": 3080,
      "gorilla": 3081,
      "cano": 3082,
      "sailor": 3083,
      "mill": 3084,
      "trum": 3085,
      "spr": 3086,
      "older": 3087,
      "arian": 3088,
      "carto": 3089,
      "anywhere": 3090,
      "miser": 3091,
      "hood": 3092,
      "cli": 3093,
      "volcano": 3094,
      "miserable": 3095,
      "given": 3096,
      "gifted": 3097,
      "giraf": 3098,
      "salt": 3099,
      "camp": 3100,
      "igator": 3101,
      "curtain": 3102,
      "shad": 3103,
      "whisk": 3104,
      "alligator": 3105,
      "turkey": 3106,
      "neighb": 3107,
      "hive": 3108,
      "alert": 3109,
      "separ": 3110,
      "brighter": 3111,
      "ffin": 3112,
      "impat": 3113,
      "pear": 3114,
      "muffin": 3115,
      "soldier": 3116,
      "purse": 3117,
      "practiced": 3118,
      "ned": 3119,
      "bandage": 3120,
      "decorate": 3121,
      "helmet": 3122,
      "shouts": 3123,
      "repe": 3124,
      "compassionate": 3125,
      "millie": 3126,
      "lions": 3127,
      "octop": 3128,
      "jeep": 3129,
      "attract": 3130,
      "crystal": 3131,
      "distur": 3132,
      "impatient": 3133,
      "math": 3134,
      "firework": 3135,
      "stretched": 3136,
      "spike": 3137,
      "bathtub": 3138,
      "ost": 3139,
      "heli": 3140,
      "disgusting": 3141,
      "meas": 3142,
      "split": 3143,
      "bounced": 3144,
      "itself": 3145,
      "tion": 3146,
      "carpet": 3147,
      "drawer": 3148,
      "ostrich": 3149,
      "ince": 3150,
      "filthy": 3151,
      "rice": 3152,
      "icycle": 3153,
      "octopus": 3154,
      "knot": 3155,
      "asses": 3156,
      "pressed": 3157,
      "oked": 3158,
      "scoo": 3159,
      "barking": 3160,
      "trumpet": 3161,
      "bicycle": 3162,
      "shoe": 3163,
      "cycle": 3164,
      "grabs": 3165,
      "restless": 3166,
      "whiskers": 3167,
      "gie": 3168,
      "mug": 3169,
      "brownie": 3170,
      "ribb": 3171,
      "succeed": 3172,
      "giggle": 3173,
      "envious": 3174,
      "tray": 3175,
      "helpless": 3176,
      "lively": 3177,
      "pulls": 3178,
      "perform": 3179,
      "copter": 3180,
      "helicopter": 3181,
      "raven": 3182,
      "nowhere": 3183,
      "somewhere": 3184,
      "human": 3185,
      "organize": 3186,
      "shield": 3187,
      "cats": 3188,
      "tube": 3189,
      "admi": 3190,
      "chu": 3191,
      "spell": 3192,
      "everyday": 3193,
      "magnet": 3194,
      "jerry": 3195,
      "attractive": 3196,
      "aur": 3197,
      "ener": 3198,
      "leop": 3199,
      "scoop": 3200,
      "aked": 3201,
      "vine": 3202,
      "kang": 3203,
      "kangar": 3204,
      "anda": 3205,
      "needle": 3206,
      "pun": 3207,
      "restaur": 3208,
      "afternoon": 3209,
      "cows": 3210,
      "cush": 3211,
      "poem": 3212,
      "monkeys": 3213,
      "cricket": 3214,
      "tick": 3215,
      "attic": 3216,
      "lightning": 3217,
      "further": 3218,
      "anyway": 3219,
      "papa": 3220,
      "barrel": 3221,
      "comet": 3222,
      "listening": 3223,
      "respectful": 3224,
      "scooter": 3225,
      "cooked": 3226,
      "sticker": 3227,
      "paws": 3228,
      "chubby": 3229,
      "dess": 3230,
      "lk": 3231,
      "wishes": 3232,
      "thief": 3233,
      "œthat": 3234,
      "ador": 3235,
      "admire": 3236,
      "spir": 3237,
      "restaurant": 3238,
      "henry": 3239,
      "thread": 3240,
      "cob": 3241,
      "iest": 3242,
      "screw": 3243,
      "harsh": 3244,
      "distant": 3245,
      "backpack": 3246,
      "por": 3247,
      "ected": 3248,
      "sandbox": 3249,
      "loop": 3250,
      "behave": 3251,
      "pole": 3252,
      "radio": 3253,
      "holes": 3254,
      "modest": 3255,
      "uli": 3256,
      "glasses": 3257,
      "cel": 3258,
      "summer": 3259,
      "fireman": 3260,
      "annie": 3261,
      "silver": 3262,
      "repair": 3263,
      "smith": 3264,
      "finds": 3265,
      "mission": 3266,
      "napkin": 3267,
      "pushes": 3268,
      "maria": 3269,
      "ations": 3270,
      "knock": 3271,
      "wheat": 3272,
      "stirred": 3273,
      "sheet": 3274,
      "charlie": 3275,
      "stretch": 3276,
      "bikes": 3277,
      "switch": 3278,
      "harry": 3279,
      "elev": 3280,
      "leopard": 3281,
      "hedge": 3282,
      "avoc": 3283,
      "elevator": 3284,
      "stared": 3285,
      "sock": 3286,
      "frowned": 3287,
      "speak": 3288,
      "bears": 3289,
      "zebra": 3290,
      "gain": 3291,
      "package": 3292,
      "sweater": 3293,
      "cardboard": 3294,
      "gn": 3295,
      "ween": 3296,
      "cco": 3297,
      "sport": 3298,
      "jokes": 3299,
      "microphone": 3300,
      "pit": 3301,
      "size": 3302,
      "oy": 3303,
      "meat": 3304,
      "inking": 3305,
      "impro": 3306,
      "drawings": 3307,
      "candle": 3308,
      "riding": 3309,
      "iron": 3310,
      "quar": 3311,
      "marry": 3312,
      "haircut": 3313,
      "sort": 3314,
      "adorable": 3315,
      "notebook": 3316,
      "exper": 3317,
      "golf": 3318,
      "chain": 3319,
      "enthusiastic": 3320,
      "reco": 3321,
      "laun": 3322,
      "dessert": 3323,
      "celery": 3324,
      "swinging": 3325,
      "kangaroo": 3326,
      "happier": 3327,
      "jellyfish": 3328,
      "kne": 3329,
      "gro": 3330,
      "hall": 3331,
      "troph": 3332,
      "either": 3333,
      "rod": 3334,
      "quite": 3335,
      "bur": 3336,
      "sir": 3337,
      "shel": 3338,
      "object": 3339,
      "ache": 3340,
      "ded": 3341,
      "recogn": 3342,
      "oat": 3343,
      "brocco": 3344,
      "avail": 3345,
      "broccoli": 3346,
      "mask": 3347,
      "castles": 3348,
      "belt": 3349,
      "tire": 3350,
      "boots": 3351,
      "troubled": 3352,
      "rolling": 3353,
      "twist": 3354,
      "appreci": 3355,
      "wire": 3356,
      "chalk": 3357,
      "danger": 3358,
      "dive": 3359,
      "cauli": 3360,
      "dust": 3361,
      "choice": 3362,
      "tripped": 3363,
      "cact": 3364,
      "paid": 3365,
      "clapping": 3366,
      "secon": 3367,
      "checked": 3368,
      "roared": 3369,
      "since": 3370,
      "papers": 3371,
      "dishes": 3372,
      "triangle": 3373,
      "rescue": 3374,
      "available": 3375,
      "fee": 3376,
      "peek": 3377,
      "lilly": 3378,
      "forgave": 3379,
      "shovel": 3380,
      "bang": 3381,
      "grapes": 3382,
      "mild": 3383,
      "shrimp": 3384,
      "wever": 3385,
      "however": 3386,
      "climbing": 3387,
      "scold": 3388,
      "didna": 3389,
      "shelter": 3390,
      "shakes": 3391,
      "wallet": 3392,
      "judge": 3393,
      "palace": 3394,
      "eraser": 3395,
      "complain": 3396,
      "pushing": 3397,
      "seeing": 3398,
      "pilot": 3399,
      "sher": 3400,
      "send": 3401,
      "trains": 3402,
      "cus": 3403,
      "laser": 3404,
      "falling": 3405,
      "appl": 3406,
      "rubber": 3407,
      "message": 3408,
      "sprink": 3409,
      "onion": 3410,
      "colours": 3411,
      "alive": 3412,
      "bol": 3413,
      "twink": 3414,
      "inse": 3415,
      "point": 3416,
      "shopkeeper": 3417,
      "quit": 3418,
      "raining": 3419,
      "reinde": 3420,
      "feelings": 3421,
      "jess": 3422,
      "costu": 3423,
      "putting": 3424,
      "country": 3425,
      "resist": 3426,
      "smells": 3427,
      "cauliflower": 3428,
      "costume": 3429,
      "cof": 3430,
      "softly": 3431,
      "breaks": 3432,
      "spirit": 3433,
      "yach": 3434,
      "trophy": 3435,
      "coffee": 3436,
      "dar": 3437,
      "learnt": 3438,
      "surren": 3439,
      "surrender": 3440,
      "mer": 3441,
      "danny": 3442,
      "starting": 3443,
      "chan": 3444,
      "basketball": 3445,
      "zoomed": 3446,
      "pipe": 3447,
      "raft": 3448,
      "visited": 3449,
      "treasures": 3450,
      "hoping": 3451,
      "ax": 3452,
      "nal": 3453,
      "oil": 3454,
      "unhappy": 3455,
      "ske": 3456,
      "mee": 3457,
      "trem": 3458,
      "kate": 3459,
      "hotel": 3460,
      "sweethe": 3461,
      "wool": 3462,
      "imagine": 3463,
      "energy": 3464,
      "reindeer": 3465,
      "stamp": 3466,
      "laundry": 3467,
      "cactus": 3468,
      "yacht": 3469,
      "panda": 3470,
      "fac": 3471,
      "peach": 3472,
      "counter": 3473,
      "xi": 3474,
      "cups": 3475,
      "cooler": 3476,
      "shade": 3477,
      "sweetheart": 3478,
      "frame": 3479,
      "ino": 3480,
      "journal": 3481,
      "bulb": 3482,
      "va": 3483,
      "neighbour": 3484,
      "lawy": 3485,
      "tricks": 3486,
      "barks": 3487,
      "sle": 3488,
      "bananas": 3489,
      "task": 3490,
      "sim": 3491,
      "maggie": 3492,
      "motorcycle": 3493,
      "poke": 3494,
      "inclu": 3495,
      "vend": 3496,
      "enter": 3497,
      "viol": 3498,
      "comm": 3499,
      "drops": 3500,
      "evening": 3501,
      "airport": 3502,
      "leton": 3503,
      "film": 3504,
      "skeleton": 3505,
      "sym": 3506,
      "jazz": 3507,
      "crow": 3508,
      "fisher": 3509,
      "throws": 3510,
      "cushion": 3511,
      "steak": 3512,
      "ath": 3513,
      "stuffed": 3514,
      "strawberry": 3515,
      "folder": 3516,
      "bree": 3517,
      "painter": 3518,
      "skill": 3519,
      "powder": 3520,
      "seum": 3521,
      "ambul": 3522,
      "unlock": 3523,
      "museum": 3524,
      "tear": 3525,
      "winter": 3526,
      "ambulance": 3527,
      "marched": 3528,
      "rhino": 3529,
      "closely": 3530,
      "lands": 3531,
      "uce": 3532,
      "vid": 3533,
      "planet": 3534,
      "leaned": 3535,
      "james": 3536,
      "vendor": 3537,
      "theater": 3538,
      "taxi": 3539,
      "petal": 3540,
      "fauce": 3541,
      "crash": 3542,
      "violin": 3543,
      "resp": 3544,
      "dear": 3545,
      "heads": 3546,
      "cherries": 3547,
      "bey": 3548,
      "porch": 3549,
      "ding": 3550,
      "frogs": 3551,
      "fields": 3552,
      "diary": 3553,
      "squi": 3554,
      "football": 3555,
      "support": 3556,
      "tomato": 3557,
      "giraffe": 3558,
      "cable": 3559,
      "weigh": 3560,
      "awe": 3561,
      "tony": 3562,
      "beam": 3563,
      "symbol": 3564,
      "ckey": 3565,
      "hockey": 3566,
      "mosqui": 3567,
      "waving": 3568,
      "swung": 3569,
      "faucet": 3570,
      "soc": 3571,
      "hut": 3572,
      "apologized": 3573,
      "aled": 3574,
      "lime": 3575,
      "plastic": 3576,
      "az": 3577,
      "gur": 3578,
      "mule": 3579,
      "izes": 3580,
      "forgotten": 3581,
      "baking": 3582,
      "cheek": 3583,
      "soccer": 3584,
      "kat": 3585,
      "reef": 3586,
      "page": 3587,
      "pirates": 3588,
      "meeting": 3589,
      "œyou": 3590,
      "€“": 3591,
      "magaz": 3592,
      "trail": 3593,
      "..": 3594,
      "ucked": 3595,
      "planes": 3596,
      "god": 3597,
      "comfort": 3598,
      "imagination": 3599,
      "aero": 3600,
      "bing": 3601,
      "scope": 3602,
      "attent": 3603,
      "medal": 3604,
      "seas": 3605,
      "wife": 3606,
      "hadn": 3607,
      "between": 3608,
      "luckily": 3609,
      "herb": 3610,
      "nament": 3611,
      "quarrel": 3612,
      "ense": 3613,
      "greed": 3614,
      "created": 3615,
      "lang": 3616,
      "player": 3617,
      "belongs": 3618,
      "langu": 3619,
      "soil": 3620,
      "wipe": 3621,
      "yogur": 3622,
      "tap": 3623,
      "parent": 3624,
      "grocer": 3625,
      "axe": 3626,
      "snap": 3627,
      "novel": 3628,
      "fortun": 3629,
      "temple": 3630,
      "zipper": 3631,
      "ouch": 3632,
      "aper": 3633,
      "yogurt": 3634,
      "rosie": 3635,
      "zoe": 3636,
      "eagerly": 3637,
      "factory": 3638,
      "points": 3639,
      "lawyer": 3640,
      "cree": 3641,
      "breeze": 3642,
      "slept": 3643,
      "rele": 3644,
      "fisherman": 3645,
      "san": 3646,
      "breathe": 3647,
      "sneak": 3648,
      "attention": 3649,
      "minute": 3650,
      "kayak": 3651,
      "prun": 3652,
      "slipper": 3653,
      "shouting": 3654,
      "slippery": 3655,
      "ornament": 3656,
      "snowy": 3657,
      "blowing": 3658,
      "knob": 3659,
      "writ": 3660,
      "mixer": 3661,
      "mechan": 3662,
      "shouldn": 3663,
      "writing": 3664,
      "died": 3665,
      "twis": 3666,
      "perfectly": 3667,
      "mechanic": 3668,
      "chim": 3669,
      "fishing": 3670,
      "maze": 3671,
      "argue": 3672,
      "chickens": 3673,
      "glowing": 3674,
      "sunset": 3675,
      "flame": 3676,
      "apr": 3677,
      "glove": 3678,
      "offer": 3679,
      "poss": 3680,
      "mim": 3681,
      "sprayed": 3682,
      "ah": 3683,
      "armchair": 3684,
      "headed": 3685,
      "avocado": 3686,
      "newsp": 3687,
      "squirrels": 3688,
      "tip": 3689,
      "skull": 3690,
      "sla": 3691,
      "chimney": 3692,
      "cell": 3693,
      "weather": 3694,
      "coal": 3695,
      "moves": 3696,
      "blankets": 3697,
      "celebrated": 3698,
      "short": 3699,
      "flea": 3700,
      "greedy": 3701,
      "mystery": 3702,
      "mimi": 3703,
      "ison": 3704,
      "hopes": 3705,
      "golden": 3706,
      "iling": 3707,
      "furn": 3708,
      "iture": 3709,
      "furniture": 3710,
      "unpack": 3711,
      "clara": 3712,
      "oyster": 3713,
      "hon": 3714,
      "inarian": 3715,
      "veter": 3716,
      "veterinarian": 3717,
      "pted": 3718,
      "kingdom": 3719,
      "video": 3720,
      "toile": 3721,
      "shower": 3722,
      "oak": 3723,
      "aff": 3724,
      "gret": 3725,
      "comed": 3726,
      "rhinocer": 3727,
      "junk": 3728,
      "washer": 3729,
      "cuss": 3730,
      "lotion": 3731,
      "mop": 3732,
      "ction": 3733,
      "welcomed": 3734,
      "disappear": 3735,
      "potato": 3736,
      "sniffed": 3737,
      "applau": 3738,
      "bury": 3739,
      "sisted": 3740,
      "memories": 3741,
      "baseball": 3742,
      "petals": 3743,
      "wags": 3744,
      "toilet": 3745,
      "ire": 3746,
      "ws": 3747,
      "follows": 3748,
      "freez": 3749,
      "hanging": 3750,
      "eral": 3751,
      "calls": 3752,
      "discuss": 3753,
      "happens": 3754,
      "bling": 3755,
      "fog": 3756,
      "wigg": 3757,
      "erc": 3758,
      "exerc": 3759,
      "rhinoceros": 3760,
      "lawn": 3761,
      "reve": 3762,
      "chur": 3763,
      "creek": 3764,
      "beef": 3765,
      "throwing": 3766,
      "sticky": 3767,
      "fortunately": 3768,
      "pine": 3769,
      "surround": 3770,
      "dishwasher": 3771,
      "zzy": 3772,
      "fireplace": 3773,
      "shrink": 3774,
      "church": 3775,
      "oking": 3776,
      "pinch": 3777,
      "burned": 3778,
      "mineral": 3779,
      "fant": 3780,
      "lia": 3781,
      "immed": 3782,
      "trave": 3783,
      "veil": 3784,
      "superhero": 3785,
      "aeroplane": 3786,
      "popped": 3787,
      "dressed": 3788,
      "bathe": 3789,
      "coats": 3790,
      "staff": 3791,
      "grin": 3792,
      "sunglasses": 3793,
      "iglo": 3794,
      "shoulder": 3795,
      "bouncing": 3796,
      "ignored": 3797,
      "mattre": 3798,
      "sailing": 3799,
      "shrugged": 3800,
      "classroom": 3801,
      "dancer": 3802,
      "bother": 3803,
      "doggy": 3804,
      "second": 3805,
      "olive": 3806,
      "worth": 3807,
      "flapped": 3808,
      "collected": 3809,
      "cost": 3810,
      "tug": 3811,
      "horses": 3812,
      "yoga": 3813,
      "battery": 3814,
      "crib": 3815,
      "microscope": 3816,
      "ris": 3817,
      "mistakes": 3818,
      "puddles": 3819,
      "presents": 3820,
      "yield": 3821,
      "omed": 3822,
      "separate": 3823,
      "language": 3824,
      "invest": 3825,
      "float": 3826,
      "possible": 3827,
      "regret": 3828,
      "eaten": 3829,
      "pastry": 3830,
      "fought": 3831,
      "swamp": 3832,
      "oas": 3833,
      "stable": 3834,
      "skirt": 3835,
      "experience": 3836,
      "stren": 3837,
      "quietly": 3838,
      "streng": 3839,
      "igloo": 3840,
      "investig": 3841,
      "makeup": 3842,
      "candles": 3843,
      "mattress": 3844,
      "oasis": 3845,
      "intro": 3846,
      "introdu": 3847,
      "squeeze": 3848,
      "holid": 3849,
      "caring": 3850,
      "slice": 3851,
      "holiday": 3852,
      "vision": 3853,
      "strength": 3854,
      "alarm": 3855,
      "cared": 3856,
      "display": 3857,
      "radish": 3858,
      "argu": 3859,
      "chess": 3860,
      "steam": 3861,
      "crawling": 3862,
      "cobweb": 3863,
      "isn": 3864,
      "blin": 3865,
      "blackboard": 3866,
      "served": 3867,
      "magazine": 3868,
      "ruby": 3869,
      "newspaper": 3870,
      "apart": 3871,
      "dent": 3872,
      "lend": 3873,
      "rush": 3874,
      "buck": 3875,
      "sizes": 3876,
      "sigh": 3877,
      "rooms": 3878,
      "married": 3879,
      "immedi": 3880,
      "alright": 3881,
      "straight": 3882,
      "blood": 3883,
      "captain": 3884,
      "during": 3885,
      "appro": 3886,
      "scolded": 3887,
      "immediately": 3888,
      "thumb": 3889,
      "television": 3890,
      "mosquito": 3891,
      "gym": 3892,
      "news": 3893,
      "trusted": 3894,
      "squeezed": 3895,
      "tol": 3896,
      "investigate": 3897,
      "chor": 3898,
      "pis": 3899,
      "rake": 3900,
      "accepted": 3901,
      "weep": 3902,
      "ups": 3903,
      "pistol": 3904,
      "iv": 3905,
      "mustache": 3906,
      "kisses": 3907,
      "len": 3908,
      "œita": 3909,
      "opera": 3910,
      "keeping": 3911,
      "splashing": 3912,
      "melt": 3913,
      "accept": 3914,
      "yum": 3915,
      "reaches": 3916,
      "ticket": 3917,
      "mand": 3918,
      "letting": 3919,
      "tina": 3920,
      "mint": 3921,
      "ceiling": 3922,
      "musician": 3923,
      "relaxed": 3924,
      "entered": 3925,
      "perfu": 3926,
      "perfume": 3927,
      "zor": 3928,
      "ement": 3929,
      "amazement": 3930,
      "delay": 3931,
      "pastel": 3932,
      "jewelry": 3933,
      "yucky": 3934,
      "mist": 3935,
      "pedal": 3936,
      "cham": 3937,
      "frown": 3938,
      "blinked": 3939,
      "telephone": 3940,
      "kneel": 3941,
      "licks": 3942,
      "wandered": 3943,
      "sters": 3944,
      "demand": 3945,
      "anchor": 3946,
      "wine": 3947,
      "blueberries": 3948,
      "matches": 3949,
      "chairs": 3950,
      "birdcage": 3951,
      "uniform": 3952,
      "easily": 3953,
      "razor": 3954,
      "helper": 3955,
      "recomm": 3956,
      "suff": 3957,
      "hurting": 3958,
      "sub": 3959,
      "puzzles": 3960,
      "hic": 3961,
      "somed": 3962,
      "spear": 3963,
      "claws": 3964,
      "someday": 3965,
      "llen": 3966,
      "sparkle": 3967,
      "cliff": 3968,
      "freezer": 3969,
      "ins": 3970,
      "vehic": 3971,
      "bookcase": 3972,
      "growled": 3973,
      "model": 3974,
      "bers": 3975,
      "lab": 3976,
      "rail": 3977,
      "label": 3978,
      "grill": 3979,
      "harbor": 3980,
      "sandcastle": 3981,
      "lier": 3982,
      "rachel": 3983,
      "plates": 3984,
      "fuel": 3985,
      "tucked": 3986,
      "trade": 3987,
      "crossed": 3988,
      "katie": 3989,
      "hearts": 3990,
      "improve": 3991,
      "surprises": 3992,
      "file": 3993,
      "lic": 3994,
      "freddy": 3995,
      "ribbon": 3996,
      "dic": 3997,
      "below": 3998,
      "wardrobe": 3999,
      "dried": 4000,
      "request": 4001,
      "thr": 4002,
      "offic": 4003,
      "reverse": 4004,
      "oper": 4005,
      "sparkles": 4006,
      "lemonade": 4007,
      "cabinet": 4008,
      "waste": 4009,
      "blouse": 4010,
      "warmth": 4011,
      "diction": 4012,
      "safety": 4013,
      "moments": 4014,
      "worms": 4015,
      "couraged": 4016,
      "supply": 4017,
      "dictionary": 4018,
      "incre": 4019,
      "ctions": 4020,
      "apron": 4021,
      "poo": 4022,
      "lumber": 4023,
      "poked": 4024,
      "tast": 4025,
      "bleed": 4026,
      "ollie": 4027,
      "valley": 4028,
      "attach": 4029,
      "boot": 4030,
      "unfortunately": 4031,
      "invit": 4032,
      "scattered": 4033,
      "spending": 4034,
      "dresses": 4035,
      "skills": 4036,
      "padd": 4037,
      "spade": 4038,
      "following": 4039,
      "spots": 4040,
      "cherry": 4041,
      "saving": 4042,
      "structure": 4043,
      "nore": 4044,
      "prepar": 4045,
      "milly": 4046,
      "difference": 4047,
      "beans": 4048,
      "ms": 4049,
      "decis": 4050,
      "laught": 4051,
      "ining": 4052,
      "cuddled": 4053,
      "€.": 4054,
      "laughter": 4055,
      "understanding": 4056,
      "raise": 4057,
      "fallen": 4058,
      "poison": 4059,
      "fest": 4060,
      "cation": 4061,
      "missile": 4062,
      "strawberries": 4063,
      "'.": 4064,
      "ideas": 4065,
      "balan": 4066,
      "solved": 4067,
      "snapped": 4068,
      "remove": 4069,
      "myself": 4070,
      "fastest": 4071,
      "tornado": 4072,
      "wis": 4073,
      "root": 4074,
      "gear": 4075,
      "sham": 4076,
      "calend": 4077,
      "washing": 4078,
      "jewels": 4079,
      "sneeze": 4080,
      "weap": 4081,
      "buried": 4082,
      "rabbits": 4083,
      "recei": 4084,
      "calendar": 4085,
      "lugg": 4086,
      "socks": 4087,
      "prevent": 4088,
      "ival": 4089,
      "bravely": 4090,
      "luggage": 4091,
      "gers": 4092,
      "taller": 4093,
      "yawned": 4094,
      "crun": 4095,
      "expected": 4096,
      "ringing": 4097,
      "sparkling": 4098,
      "shampoo": 4099,
      "refri": 4100,
      "gerator": 4101,
      "festival": 4102,
      "refrigerator": 4103,
      "earlier": 4104,
      "ignore": 4105,
      "rhy": 4106,
      "destroyed": 4107,
      "begged": 4108,
      "repeat": 4109,
      "bumped": 4110,
      "appreciate": 4111,
      "hits": 4112,
      "icing": 4113,
      "tutor": 4114,
      "ker": 4115,
      "afterwards": 4116,
      "surf": 4117,
      "settled": 4118,
      "hardly": 4119,
      "drain": 4120,
      "chamber": 4121,
      "none": 4122,
      "beamed": 4123,
      "die": 4124,
      "pages": 4125,
      "asht": 4126,
      "prepare": 4127,
      "destination": 4128,
      "ashtray": 4129,
      "tling": 4130,
      "universe": 4131,
      "passport": 4132,
      "infant": 4133,
      "chores": 4134,
      "signs": 4135,
      "velvet": 4136,
      "climbs": 4137,
      "replace": 4138,
      "hanger": 4139,
      "vanished": 4140,
      "tore": 4141,
      "dare": 4142,
      "homes": 4143,
      "cartoon": 4144,
      "dire": 4145,
      "decorations": 4146,
      "bets": 4147,
      "tide": 4148,
      "plays": 4149,
      "invite": 4150,
      "punish": 4151,
      "vacation": 4152,
      "betsy": 4153,
      "pride": 4154,
      "permission": 4155,
      "praised": 4156,
      "insect": 4157,
      "eter": 4158,
      "war": 4159,
      "bookshelf": 4160,
      "tongue": 4161,
      "examine": 4162,
      "mometer": 4163,
      "admir": 4164,
      "thermometer": 4165,
      "hills": 4166,
      "score": 4167,
      "grape": 4168,
      "deeper": 4169,
      "sits": 4170,
      "zero": 4171,
      "bathrobe": 4172,
      "scooped": 4173,
      "scatter": 4174,
      "obey": 4175,
      "permit": 4176,
      "scratch": 4177,
      "teaching": 4178,
      "nies": 4179,
      "hes": 4180,
      "insisted": 4181,
      "autom": 4182,
      "steve": 4183,
      "floated": 4184,
      "mailman": 4185,
      "automob": 4186,
      "aking": 4187,
      "quiz": 4188,
      "sip": 4189,
      "anne": 4190,
      "beat": 4191,
      "stomach": 4192,
      "ached": 4193,
      "pulling": 4194,
      "floating": 4195,
      "jail": 4196,
      "received": 4197,
      "orang": 4198,
      "believed": 4199,
      "panic": 4200,
      "chirping": 4201,
      "oranges": 4202,
      "digg": 4203,
      "restore": 4204,
      "hers": 4205,
      "shot": 4206,
      "struggling": 4207,
      "muscle": 4208,
      "patiently": 4209,
      "license": 4210,
      "upstairs": 4211,
      "achie": 4212,
      "shooting": 4213,
      "digging": 4214,
      "girls": 4215,
      "encouraged": 4216,
      "sprinkles": 4217,
      "lets": 4218,
      "ranch": 4219,
      "whip": 4220,
      "anytime": 4221,
      "mister": 4222,
      "conf": 4223,
      "provide": 4224,
      "gran": 4225,
      "gifts": 4226,
      "buzzing": 4227,
      "rhyth": 4228,
      "glit": 4229,
      "guy": 4230,
      "elephants": 4231,
      "measured": 4232,
      "sid": 4233,
      "brain": 4234,
      "collecting": 4235,
      "crunch": 4236,
      "abig": 4237,
      "antly": 4238,
      "neighborhood": 4239,
      "collection": 4240,
      "abigail": 4241,
      "subway": 4242,
      "respons": 4243,
      "wiz": 4244,
      "bites": 4245,
      "equ": 4246,
      "chip": 4247,
      "wherever": 4248,
      "mention": 4249,
      "ium": 4250,
      "unite": 4251,
      "iers": 4252,
      "vy": 4253,
      "versity": 4254,
      "worse": 4255,
      "teas": 4256,
      "jogging": 4257,
      "sausage": 4258,
      "weeks": 4259,
      "patterns": 4260,
      "emer": 4261,
      "setting": 4262,
      "sore": 4263,
      "exercise": 4264,
      "approached": 4265,
      "mall": 4266,
      "massage": 4267,
      "tease": 4268,
      "university": 4269,
      "palm": 4270,
      "six": 4271,
      "sunrise": 4272,
      "proper": 4273,
      "melted": 4274,
      "wizard": 4275,
      "bbled": 4276,
      "buckle": 4277,
      "osed": 4278,
      "supposed": 4279,
      "zipped": 4280,
      "warning": 4281,
      "mmm": 4282,
      "flav": 4283,
      "stitch": 4284,
      "billboard": 4285,
      "twisted": 4286,
      "bricks": 4287,
      "leak": 4288,
      "disco": 4289,
      "grey": 4290,
      "perfor": 4291,
      "parts": 4292,
      "airplane": 4293,
      "meowed": 4294,
      "vehicle": 4295,
      "fy": 4296,
      "soldiers": 4297,
      "hesit": 4298,
      "watches": 4299,
      "discovery": 4300,
      "fut": 4301,
      "everybody": 4302,
      "pillows": 4303,
      "fied": 4304,
      "remain": 4305,
      "toe": 4306,
      "tour": 4307,
      "choo": 4308,
      "future": 4309,
      "hate": 4310,
      "ski": 4311,
      "rhythm": 4312,
      "remy": 4313,
      "automobile": 4314,
      "urge": 4315,
      "compl": 4316,
      "glowed": 4317,
      "marbles": 4318,
      "freeze": 4319,
      "pigs": 4320,
      "price": 4321,
      "ef": 4322,
      "œno": 4323,
      "heat": 4324,
      "fixing": 4325,
      "actually": 4326,
      "teaspo": 4327,
      "whistled": 4328,
      "grocery": 4329,
      "nation": 4330,
      "brings": 4331,
      "ki": 4332,
      "nutty": 4333,
      "suffer": 4334,
      "manage": 4335,
      "gust": 4336,
      "burning": 4337,
      "thrilled": 4338,
      "whistling": 4339,
      "growl": 4340,
      "squeak": 4341,
      "scratched": 4342,
      "lick": 4343,
      "luna": 4344,
      "remained": 4345,
      "unic": 4346,
      "seats": 4347,
      "grinned": 4348,
      "nie": 4349,
      "zing": 4350,
      "paused": 4351,
      "receive": 4352,
      "problems": 4353,
      "surrounded": 4354,
      "racing": 4355,
      "drinking": 4356,
      "stad": 4357,
      "stadium": 4358,
      "famil": 4359,
      "sings": 4360,
      "wisdom": 4361,
      "lest": 4362,
      "chirped": 4363,
      "twigs": 4364,
      "skipping": 4365,
      "ake": 4366,
      "sed": 4367,
      "spill": 4368,
      "pets": 4369,
      "accidents": 4370,
      "weapon": 4371,
      "cin": 4372,
      "rang": 4373,
      "copper": 4374,
      "abby": 4375,
      "hurri": 4376,
      "drinks": 4377,
      "works": 4378,
      "pea": 4379,
      "waits": 4380,
      "scur": 4381,
      "fireworks": 4382,
      "observe": 4383,
      "ordered": 4384,
      "paints": 4385,
      "waffles": 4386,
      "floppy": 4387,
      "tracks": 4388,
      "sliding": 4389,
      "peanuts": 4390,
      "marching": 4391,
      "prayed": 4392,
      "sneezed": 4393,
      "disturb": 4394,
      "lecture": 4395,
      "hated": 4396,
      "quake": 4397,
      "folded": 4398,
      "potatoes": 4399,
      "safar": 4400,
      "laid": 4401,
      "watered": 4402,
      "earthquake": 4403,
      "memory": 4404,
      "operation": 4405,
      "decision": 4406,
      "teaspoon": 4407,
      "beha": 4408,
      "contain": 4409,
      "spaceship": 4410,
      "satis": 4411,
      "cartoons": 4412,
      "!\",": 4413,
      "pupp": 4414,
      "hurricane": 4415,
      "raised": 4416,
      "spoons": 4417,
      "screams": 4418,
      "crunchy": 4419,
      "chirpy": 4420,
      "petted": 4421,
      "invitation": 4422,
      "!'": 4423,
      "bones": 4424,
      "flood": 4425,
      "tomatoes": 4426,
      "measuring": 4427,
      "crashed": 4428,
      "lul": 4429,
      "aded": 4430,
      "strangers": 4431,
      "circus": 4432,
      "officer": 4433,
      "sunlight": 4434,
      "challen": 4435,
      "curled": 4436,
      "stripes": 4437,
      "yawn": 4438,
      "lip": 4439,
      "jan": 4440,
      "cious": 4441,
      "ities": 4442,
      "sages": 4443,
      "œthata": 4444,
      "recognized": 4445,
      "esca": 4446,
      "beds": 4447,
      "chewed": 4448,
      "glitter": 4449,
      "safari": 4450,
      "rested": 4451,
      "fet": 4452,
      "frank": 4453,
      "comfy": 4454,
      "remembers": 4455,
      "disagreed": 4456,
      "kindly": 4457,
      "monsters": 4458,
      "fascin": 4459,
      "history": 4460,
      "planted": 4461,
      "agreement": 4462,
      "ashes": 4463,
      "buildings": 4464,
      "brick": 4465,
      "goodnight": 4466,
      "ipment": 4467,
      "continue": 4468,
      "mouths": 4469,
      "equipment": 4470,
      "zag": 4471,
      "blueberry": 4472,
      "easier": 4473,
      "admiring": 4474,
      "secrets": 4475,
      "mountains": 4476,
      "attached": 4477,
      "œia": 4478,
      "lips": 4479,
      "sidewalk": 4480,
      "zig": 4481,
      "ali": 4482,
      "œit": 4483,
      "happiest": 4484,
      "navy": 4485,
      "company": 4486,
      "escaped": 4487,
      "refre": 4488,
      "ising": 4489,
      "peel": 4490,
      "refreshed": 4491,
      "swo": 4492,
      "beside": 4493,
      "prepared": 4494,
      "turning": 4495,
      "selling": 4496,
      "apologize": 4497,
      "stealing": 4498,
      "bringing": 4499,
      "clearing": 4500,
      "\",": 4501,
      "ots": 4502,
      "wre": 4503,
      "pip": 4504,
      "aren": 4505,
      "josh": 4506,
      "woof": 4507,
      "gloves": 4508,
      "orts": 4509,
      "revealed": 4510,
      "onwards": 4511,
      "muddy": 4512,
      "settle": 4513,
      "trapped": 4514,
      "jamie": 4515,
      "style": 4516,
      "simple": 4517,
      "steel": 4518,
      "firefight": 4519,
      "precious": 4520,
      "slip": 4521,
      "bleeding": 4522,
      "fash": 4523,
      "leather": 4524,
      "menu": 4525,
      "chlo": 4526,
      "weight": 4527,
      "guessed": 4528,
      "lung": 4529,
      "whatever": 4530,
      "œthank": 4531,
      "wanting": 4532,
      "catching": 4533,
      "reminder": 4534,
      "dinosaurs": 4535,
      "stam": 4536,
      "brid": 4537,
      "solut": 4538,
      "xy": 4539,
      "rained": 4540,
      "succeeded": 4541,
      "oats": 4542,
      "gotten": 4543,
      "cuddle": 4544,
      "aw": 4545,
      "œwe": 4546,
      "beth": 4547,
      "brand": 4548,
      "bank": 4549,
      "flavor": 4550,
      "mira": 4551,
      "chloe": 4552,
      "ana": 4553,
      "peered": 4554,
      "curio": 4555,
      "cutting": 4556,
      "todd": 4557,
      "sunday": 4558,
      "eagle": 4559,
      "overjoy": 4560,
      "fashion": 4561,
      "curiosity": 4562,
      "overjoyed": 4563,
      "pies": 4564,
      "bouncy": 4565,
      "villag": 4566,
      "prune": 4567,
      "printer": 4568,
      "vic": 4569,
      "ented": 4570,
      "shadows": 4571,
      "gained": 4572,
      "david": 4573,
      "pupil": 4574,
      "waist": 4575,
      "perched": 4576,
      "weren": 4577,
      "bene": 4578,
      "wonders": 4579,
      "soared": 4580,
      "eats": 4581,
      "nails": 4582,
      "hoppy": 4583,
      "shopping": 4584,
      "acorns": 4585,
      "tha": 4586,
      "image": 4587,
      "grandmother": 4588,
      "bowed": 4589,
      "tastes": 4590,
      "umes": 4591,
      "comforted": 4592,
      "chat": 4593,
      "zigzag": 4594,
      "bridges": 4595,
      "wooden": 4596,
      "answers": 4597,
      "pearl": 4598,
      "voices": 4599,
      "ripped": 4600,
      "boom": 4601,
      "hanna": 4602,
      "spiders": 4603,
      "lemons": 4604,
      "exact": 4605,
      "breaking": 4606,
      "visiting": 4607,
      "flutter": 4608,
      "eight": 4609,
      "decides": 4610,
      "hurried": 4611,
      "costumes": 4612,
      "santa": 4613,
      "pitch": 4614,
      "sadness": 4615,
      "brushed": 4616,
      "emergen": 4617,
      "lap": 4618,
      "downstairs": 4619,
      "writes": 4620,
      "responsible": 4621,
      "nina": 4622,
      "chef": 4623,
      "prints": 4624,
      "rubbing": 4625,
      "unicorn": 4626,
      "rul": 4627,
      "inch": 4628,
      "west": 4629,
      "crept": 4630,
      "creation": 4631,
      "united": 4632,
      "underground": 4633,
      "pancakes": 4634,
      "twirling": 4635,
      "struggled": 4636,
      "disturbed": 4637,
      "beneath": 4638,
      "julie": 4639,
      "villagers": 4640,
      "mice": 4641,
      "honk": 4642,
      "lines": 4643,
      "firemen": 4644,
      "tremble": 4645,
      "ric": 4646,
      "suzy": 4647,
      "weighed": 4648,
      "neath": 4649,
      "betty": 4650,
      "izing": 4651,
      "underneath": 4652,
      "est": 4653,
      "oxy": 4654,
      "rs": 4655,
      "tilly": 4656,
      "att": 4657,
      "doctors": 4658,
      "practicing": 4659,
      "recommend": 4660,
      "fer": 4661,
      "ases": 4662,
      "exit": 4663,
      "network": 4664,
      "fuzzy": 4665,
      "loaded": 4666,
      "sterday": 4667,
      "yesterday": 4668,
      "examined": 4669,
      "wid": 4670,
      "rides": 4671,
      "neighbors": 4672,
      "release": 4673,
      "oxygen": 4674,
      "bare": 4675,
      "knel": 4676,
      "soak": 4677,
      "decorated": 4678,
      "argued": 4679,
      "wreck": 4680,
      "winning": 4681,
      "claps": 4682,
      "begin": 4683,
      "knelt": 4684,
      "heel": 4685,
      "owned": 4686,
      "iggy": 4687,
      "ham": 4688,
      "area": 4689,
      "uses": 4690,
      "realize": 4691,
      "ffic": 4692,
      "caut": 4693,
      "snail": 4694,
      "recognize": 4695,
      "jessie": 4696,
      "stirring": 4697,
      "olives": 4698,
      "encourage": 4699,
      "youa": 4700,
      "stored": 4701,
      "slim": 4702,
      "startled": 4703,
      "activ": 4704,
      "yelling": 4705,
      "exactly": 4706,
      "twinkle": 4707,
      "keys": 4708,
      "pinched": 4709,
      "strip": 4710,
      "situ": 4711,
      "stretching": 4712,
      "satisfied": 4713,
      "wondering": 4714,
      "bunnies": 4715,
      "traffic": 4716,
      "ruin": 4717,
      "zooming": 4718,
      "tickets": 4719,
      "trol": 4720,
      "instru": 4721,
      "nightm": 4722,
      "wagging": 4723,
      "jogged": 4724,
      "loose": 4725,
      "deal": 4726,
      "studied": 4727,
      "tune": 4728,
      "nightmare": 4729,
      "loving": 4730,
      "riage": 4731,
      "claire": 4732,
      "sneaked": 4733,
      "fascinated": 4734,
      "tugged": 4735,
      "keeps": 4736,
      "sniff": 4737,
      "siren": 4738,
      "sides": 4739,
      "lulu": 4740,
      "hannah": 4741,
      "unlocked": 4742,
      "challenge": 4743,
      "zen": 4744,
      "ago": 4745,
      "tonight": 4746,
      "buckets": 4747,
      "brushes": 4748,
      "slapped": 4749,
      "fab": 4750,
      "control": 4751,
      "reas": 4752,
      "nes": 4753,
      "accompl": 4754,
      "nicer": 4755,
      "competition": 4756,
      "cot": 4757,
      "shivering": 4758,
      "fetch": 4759,
      "emergency": 4760,
      "thom": 4761,
      "pockets": 4762,
      "piles": 4763,
      "crumb": 4764,
      "punished": 4765,
      "peaches": 4766,
      "lied": 4767,
      "planned": 4768,
      "deser": 4769,
      "gathering": 4770,
      "protected": 4771,
      "strike": 4772,
      "neighbourhood": 4773,
      "east": 4774,
      "hunt": 4775,
      "victory": 4776,
      "rob": 4777,
      "draws": 4778,
      "properly": 4779,
      "œcan": 4780,
      "items": 4781,
      "mixing": 4782,
      "susan": 4783,
      "shoulders": 4784,
      "rainbows": 4785,
      "soaring": 4786,
      "supplies": 4787,
      "provid": 4788,
      "struck": 4789,
      "parked": 4790,
      "blink": 4791,
      "sights": 4792,
      "travell": 4793,
      "marks": 4794,
      "markers": 4795,
      "landscape": 4796,
      "ruler": 4797,
      "frozen": 4798,
      "touching": 4799,
      "guns": 4800,
      "frosting": 4801,
      "silence": 4802,
      "instructions": 4803,
      "bend": 4804,
      "printed": 4805,
      "ladybug": 4806,
      "burrow": 4807,
      ".'": 4808,
      "ler": 4809,
      "flap": 4810,
      "œlook": 4811,
      "inda": 4812,
      "sisters": 4813,
      "muscles": 4814,
      "gg": 4815,
      "carl": 4816,
      "teasing": 4817,
      "giggling": 4818,
      "thomas": 4819,
      "foods": 4820,
      "increase": 4821,
      "barely": 4822,
      "seag": 4823,
      "dolly": 4824,
      "stole": 4825,
      "opin": 4826,
      "comple": 4827,
      "dragons": 4828,
      "season": 4829,
      "motion": 4830,
      "applauded": 4831,
      "seagull": 4832,
      "budge": 4833,
      "strings": 4834,
      "hest": 4835,
      "soaked": 4836,
      "rocked": 4837,
      "patience": 4838,
      "fabric": 4839,
      "ky": 4840,
      "œhello": 4841,
      "weed": 4842,
      "cub": 4843,
      "ourselves": 4844,
      "introduce": 4845,
      "stom": 4846,
      "xu": 4847,
      "luxu": 4848,
      "poking": 4849,
      "€”": 4850,
      "relu": 4851,
      "outdoors": 4852,
      "marriage": 4853,
      "baked": 4854,
      "planets": 4855,
      "reluct": 4856,
      "chases": 4857,
      "vies": 4858,
      "prettie": 4859,
      "bottles": 4860,
      "pouring": 4861,
      "prettiest": 4862,
      "ecting": 4863,
      "ica": 4864,
      "pears": 4865,
      "sweeties": 4866,
      "released": 4867,
      "completed": 4868,
      "jon": 4869,
      "tues": 4870,
      "scurried": 4871,
      "beard": 4872,
      "movies": 4873,
      "surface": 4874,
      "vowed": 4875,
      "tickle": 4876,
      "bert": 4877,
      "bunch": 4878,
      "purred": 4879,
      "muffins": 4880,
      "bloomed": 4881,
      "demanded": 4882,
      "œthis": 4883,
      "winner": 4884,
      "babies": 4885,
      "powers": 4886,
      "roaring": 4887,
      "curly": 4888,
      "jeff": 4889,
      "discovering": 4890,
      "lam": 4891,
      "mater": 4892,
      "camping": 4893,
      "herbs": 4894,
      "material": 4895,
      "smar": 4896,
      "steep": 4897,
      "cough": 4898,
      "dragged": 4899,
      "sighs": 4900,
      "reluctantly": 4901,
      "shelves": 4902,
      "sted": 4903,
      "ranger": 4904,
      "catches": 4905,
      "wednes": 4906,
      "urged": 4907,
      "contest": 4908,
      "machines": 4909,
      "adam": 4910,
      "guys": 4911,
      "mentioned": 4912,
      "zie": 4913,
      "rip": 4914,
      "stamps": 4915,
      "broom": 4916,
      "lou": 4917,
      "tex": 4918,
      "nets": 4919,
      "singer": 4920,
      "screaming": 4921,
      "confident": 4922,
      "cones": 4923,
      "jenna": 4924,
      "ults": 4925,
      "sausages": 4926,
      "studying": 4927,
      "pebbles": 4928,
      "cts": 4929,
      "wound": 4930,
      "youth": 4931,
      "thata": 4932,
      "drives": 4933,
      "horns": 4934,
      "slimy": 4935,
      "texture": 4936,
      "ppers": 4937,
      "cuts": 4938,
      "jones": 4939,
      "pretends": 4940,
      "passing": 4941,
      "kicking": 4942,
      "balancing": 4943,
      "ents": 4944,
      "disagree": 4945,
      "although": 4946,
      "ects": 4947,
      "result": 4948,
      "lizzy": 4949,
      "pipp": 4950,
      "ribbons": 4951,
      "sorting": 4952,
      "matched": 4953,
      "master": 4954,
      "goals": 4955,
      "chips": 4956,
      "hugging": 4957,
      "matt": 4958,
      "strum": 4959,
      "cautious": 4960,
      "linda": 4961,
      "chuck": 4962,
      "sorted": 4963,
      "acted": 4964,
      "dusty": 4965,
      "kayla": 4966,
      "highest": 4967,
      "bie": 4968,
      "waiter": 4969,
      "gazed": 4970,
      "shock": 4971,
      "wink": 4972,
      "rusty": 4973,
      "colored": 4974,
      "rings": 4975,
      "flags": 4976,
      "chewing": 4977,
      "shivered": 4978,
      "matching": 4979,
      "repeated": 4980,
      "prunes": 4981,
      "sway": 4982,
      "indy": 4983,
      "curtains": 4984,
      "swoop": 4985,
      "reat": 4986,
      "sports": 4987,
      "fault": 4988,
      "wedding": 4989,
      "enty": 4990,
      "mies": 4991,
      "ledge": 4992,
      "policeman": 4993,
      "luxury": 4994,
      "gree": 4995,
      "plenty": 4996,
      "ads": 4997,
      "luke": 4998,
      "student": 4999,
      "milo": 5000,
      "yeah": 5001,
      "cindy": 5002,
      "figured": 5003,
      "crumbs": 5004,
      "rocking": 5005,
      "penguins": 5006,
      "effort": 5007,
      "gig": 5008,
      "threat": 5009,
      "entire": 5010,
      "paintings": 5011,
      "twinkling": 5012,
      "uh": 5013,
      "blooming": 5014,
      "included": 5015,
      "solution": 5016,
      "vin": 5017,
      "lizz": 5018,
      "sweets": 5019,
      "regretted": 5020,
      "theirs": 5021,
      "excuse": 5022,
      "rolls": 5023,
      "towels": 5024,
      "introduced": 5025,
      "robb": 5026,
      "baa": 5027,
      "include": 5028,
      "tuesday": 5029,
      "ud": 5030,
      "seven": 5031,
      "situation": 5032,
      "piggy": 5033,
      "stare": 5034,
      "irts": 5035,
      "unexpected": 5036,
      "roots": 5037,
      "vanish": 5038,
      "recorded": 5039,
      "rist": 5040,
      "thro": 5041,
      "flat": 5042,
      "snakes": 5043,
      "guest": 5044,
      "librarian": 5045,
      "awesome": 5046,
      "wednesday": 5047,
      "throat": 5048,
      "nick": 5049,
      "cana": 5050,
      "rust": 5051,
      "knowledge": 5052,
      "agrees": 5053,
      "achieve": 5054,
      "suzie": 5055,
      "inky": 5056,
      "dolphins": 5057,
      "œdona": 5058,
      "moo": 5059,
      "staring": 5060,
      "sticking": 5061,
      "spraying": 5062,
      "cheering": 5063,
      "dies": 5064,
      "christ": 5065,
      "homework": 5066,
      "truly": 5067,
      "rescued": 5068,
      "dresser": 5069,
      "delivery": 5070,
      "lizzie": 5071,
      "roads": 5072,
      "jamas": 5073,
      "scales": 5074,
      "written": 5075,
      "dentist": 5076,
      "completely": 5077,
      "ib": 5078,
      "exha": 5079,
      "caused": 5080,
      "bravery": 5081,
      "creating": 5082,
      "zookeeper": 5083,
      "nect": 5084,
      "learns": 5085,
      "tails": 5086,
      "growling": 5087,
      "organizing": 5088,
      "wandering": 5089,
      "trembling": 5090,
      "...": 5091,
      "arguing": 5092,
      "christmas": 5093,
      "importance": 5094,
      "baker": 5095,
      "reaching": 5096,
      "lena": 5097,
      "exhau": 5098,
      "scra": 5099,
      "shined": 5100,
      "workers": 5101,
      "crackers": 5102,
      "dared": 5103,
      "lamb": 5104,
      "œoh": 5105,
      "crabs": 5106,
      "hum": 5107,
      "jects": 5108,
      "sled": 5109,
      "aster": 5110,
      "arrive": 5111,
      "direction": 5112,
      "gigi": 5113,
      "safer": 5114,
      "wires": 5115,
      "miles": 5116,
      "kneeled": 5117,
      "ping": 5118,
      "belly": 5119,
      "peeking": 5120,
      "struggle": 5121,
      "exhausted": 5122,
      "cast": 5123,
      "whee": 5124,
      "rance": 5125,
      "buzzy": 5126,
      "healed": 5127,
      "coloured": 5128,
      "œwhy": 5129,
      "stem": 5130,
      "ventured": 5131,
      "flames": 5132,
      "leader": 5133,
      "applaud": 5134,
      "becoming": 5135,
      "mane": 5136,
      "bars": 5137,
      "inviting": 5138,
      "radishes": 5139,
      "bon": 5140,
      "pandy": 5141,
      "worries": 5142,
      "angled": 5143,
      "pajamas": 5144,
      "johnson": 5145,
      "packing": 5146,
      "pots": 5147,
      "worker": 5148,
      "pencils": 5149,
      "slap": 5150,
      "reveal": 5151,
      "fir": 5152,
      "jay": 5153,
      "nine": 5154,
      "storekeeper": 5155,
      "fairies": 5156,
      "usually": 5157,
      "itchy": 5158,
      "rockets": 5159,
      "cans": 5160,
      "owners": 5161,
      "relief": 5162,
      "julia": 5163,
      "polishing": 5164,
      "gar": 5165,
      "sob": 5166,
      "timer": 5167,
      "momo": 5168,
      "cash": 5169,
      "seesaw": 5170,
      "finn": 5171,
      "traveled": 5172,
      "firm": 5173,
      "project": 5174,
      "suitcase": 5175,
      "roses": 5176,
      "closes": 5177,
      "wil": 5178,
      "partic": 5179,
      "prayer": 5180,
      "wasna": 5181,
      "patted": 5182,
      "trips": 5183,
      "rubs": 5184,
      "seems": 5185,
      "pastels": 5186,
      "resting": 5187,
      "valued": 5188,
      "quacked": 5189,
      "poems": 5190,
      "misses": 5191,
      "snat": 5192,
      "faraway": 5193,
      "melting": 5194,
      "lined": 5195,
      "momma": 5196,
      "photos": 5197,
      "jessica": 5198,
      "countryside": 5199,
      "tara": 5200,
      "shh": 5201,
      "faced": 5202,
      "restored": 5203,
      "opening": 5204,
      "interested": 5205,
      "groceries": 5206,
      "ron": 5207,
      "stern": 5208,
      "wiggled": 5209,
      "removed": 5210,
      "knights": 5211,
      "balanced": 5212,
      "magnets": 5213,
      "cous": 5214,
      "zes": 5215,
      "signed": 5216,
      "teaches": 5217,
      "copy": 5218,
      "winked": 5219,
      "cracked": 5220,
      "avoid": 5221,
      "opinion": 5222,
      "hell": 5223,
      "swims": 5224,
      "desert": 5225,
      "sneaky": 5226,
      "firefighters": 5227,
      "hissed": 5228,
      "observed": 5229,
      "pite": 5230,
      "ripe": 5231,
      "princesses": 5232,
      "naps": 5233,
      "despite": 5234,
      "particular": 5235,
      "toss": 5236,
      "staying": 5237,
      "tractor": 5238,
      "tickled": 5239,
      "swal": 5240,
      "adding": 5241,
      "activities": 5242,
      "swallow": 5243,
      "cure": 5244,
      "sale": 5245,
      "robo": 5246,
      "seashell": 5247,
      "remo": 5248,
      "wasted": 5249,
      "reply": 5250,
      "snowballs": 5251,
      "squeaky": 5252,
      "swooped": 5253,
      "mun": 5254,
      "sophia": 5255,
      "cubes": 5256,
      "iar": 5257,
      "sen": 5258,
      "beads": 5259,
      "rover": 5260,
      "smiley": 5261,
      "single": 5262,
      "farther": 5263,
      "œwhata": 5264,
      "kites": 5265,
      "replaced": 5266,
      "sandcastles": 5267,
      "marker": 5268,
      "minerals": 5269,
      "familiar": 5270,
      "cautiously": 5271,
      "stolen": 5272,
      "swirl": 5273,
      "tricked": 5274,
      "freed": 5275,
      "lollipops": 5276,
      "crowd": 5277,
      "provided": 5278,
      "marked": 5279,
      "jacob": 5280,
      "nectar": 5281,
      "remote": 5282,
      "isies": 5283,
      "sof": 5284,
      "emmy": 5285,
      "daisies": 5286,
      "larry": 5287,
      "aut": 5288,
      "hoot": 5289,
      "joyful": 5290,
      "bumpy": 5291,
      "wears": 5292,
      "bowls": 5293,
      "dipped": 5294,
      "paddled": 5295,
      "cashier": 5296,
      "rup": 5297,
      "filling": 5298,
      "pastries": 5299,
      "lies": 5300,
      "masks": 5301,
      "badge": 5302,
      "pinky": 5303,
      "ka": 5304,
      "logs": 5305,
      "bess": 5306,
      "maya": 5307,
      "darkness": 5308,
      "protecting": 5309,
      "celebration": 5310,
      "gems": 5311,
      "sobbed": 5312,
      "somebody": 5313,
      "jacky": 5314,
      "slam": 5315,
      "mushrooms": 5316,
      "awake": 5317,
      "rr": 5318,
      "œmommy": 5319,
      "helme": 5320,
      "ks": 5321,
      "liqu": 5322,
      "tallest": 5323,
      "actions": 5324,
      "squealed": 5325,
      "folding": 5326,
      "helmets": 5327,
      "liquid": 5328,
      "splashes": 5329,
      "talented": 5330,
      "wipes": 5331,
      "beyond": 5332,
      "accomplish": 5333,
      "sweat": 5334,
      "froze": 5335,
      "younger": 5336,
      "bbly": 5337,
      "gaze": 5338,
      "merry": 5339,
      "inst": 5340,
      "yourselves": 5341,
      "shaped": 5342,
      "reads": 5343,
      "stays": 5344,
      "explorers": 5345,
      "covers": 5346,
      "polished": 5347,
      "joking": 5348,
      "thorn": 5349,
      "robby": 5350,
      "blows": 5351,
      "insects": 5352,
      "directions": 5353,
      "cted": 5354,
      "entrance": 5355,
      "pause": 5356,
      "listens": 5357,
      "clowns": 5358,
      "behaved": 5359,
      "attack": 5360,
      "dots": 5361,
      "month": 5362,
      "speaking": 5363,
      "behavi": 5364,
      "stain": 5365,
      "fluttered": 5366,
      "pedals": 5367,
      "fes": 5368,
      "refle": 5369,
      "drif": 5370,
      "families": 5371,
      "beginning": 5372,
      "chuckled": 5373,
      "secure": 5374,
      "forehead": 5375,
      "pered": 5376,
      "insist": 5377,
      "lau": 5378,
      "health": 5379,
      "arrows": 5380,
      "tricky": 5381,
      "knees": 5382,
      "neither": 5383,
      "coo": 5384,
      "buying": 5385,
      "seeker": 5386,
      "giraffes": 5387,
      "custom": 5388,
      "opp": 5389,
      "snowball": 5390,
      "hider": 5391,
      "bumps": 5392,
      "mikey": 5393,
      "bak": 5394,
      "knocks": 5395,
      "sparky": 5396,
      "parties": 5397,
      "cheeks": 5398,
      "ral": 5399,
      "intri": 5400,
      "pleasure": 5401,
      "click": 5402,
      "ners": 5403,
      "€˜": 5404,
      "ongest": 5405,
      "sew": 5406,
      "forts": 5407,
      "liza": 5408,
      "leading": 5409,
      "mesmer": 5410,
      "hops": 5411,
      "shirts": 5412,
      "scaring": 5413,
      "scarves": 5414,
      "mination": 5415,
      "determination": 5416,
      "drums": 5417,
      "candies": 5418,
      "videos": 5419,
      "gina": 5420,
      "ene": 5421,
      "backed": 5422,
      "handful": 5423,
      "sailboat": 5424,
      "recording": 5425,
      "birdy": 5426,
      "xture": 5427,
      "paddle": 5428,
      "mixture": 5429,
      "lighter": 5430,
      "salty": 5431,
      "--": 5432,
      "glee": 5433,
      "tangled": 5434,
      "ences": 5435,
      "snuggles": 5436,
      "recommended": 5437,
      "laura": 5438,
      "flake": 5439,
      "instrum": 5440,
      "lower": 5441,
      "diving": 5442,
      "choices": 5443,
      "fits": 5444,
      "tasks": 5445,
      "toed": 5446,
      "cupcakes": 5447,
      "weeping": 5448,
      "ralph": 5449,
      "pouted": 5450,
      "rumble": 5451,
      "sense": 5452,
      "spice": 5453,
      "calmed": 5454,
      "celebrating": 5455,
      "paying": 5456,
      "yells": 5457,
      "improved": 5458,
      "sequ": 5459,
      "squish": 5460,
      "tigers": 5461,
      "fever": 5462,
      "suits": 5463,
      "expect": 5464,
      "snatched": 5465,
      "stit": 5466,
      "bedtime": 5467,
      "acting": 5468,
      "steer": 5469,
      "frosty": 5470,
      "indeed": 5471,
      "bakery": 5472,
      "robert": 5473,
      "ruining": 5474,
      "snowmen": 5475,
      "jackets": 5476,
      "haw": 5477,
      "ters": 5478,
      "hesitated": 5479,
      "widened": 5480,
      "raind": 5481,
      "kicks": 5482,
      "raindro": 5483,
      "?\",": 5484,
      "peck": 5485,
      "bows": 5486,
      "smarter": 5487,
      "binky": 5488,
      "une": 5489,
      "wins": 5490,
      "snuck": 5491,
      "stroked": 5492,
      "flapping": 5493,
      "pam": 5494,
      "outfit": 5495,
      "coon": 5496,
      "mance": 5497,
      "wrist": 5498,
      "objects": 5499,
      "squares": 5500,
      "performance": 5501,
      "intrigu": 5502,
      "iles": 5503,
      "jojo": 5504,
      "needles": 5505,
      "talent": 5506,
      "dances": 5507,
      "delivered": 5508,
      "glu": 5509,
      "anno": 5510,
      "orted": 5511,
      "mabel": 5512,
      "hearing": 5513,
      "tram": 5514,
      "wraps": 5515,
      "annoy": 5516,
      "impossible": 5517,
      "unpacked": 5518,
      "consequ": 5519,
      "bluey": 5520,
      "losing": 5521,
      "umbling": 5522,
      "ornaments": 5523,
      "stomped": 5524,
      "kn": 5525,
      "œlet": 5526,
      "creamy": 5527,
      "hallway": 5528,
      "achieved": 5529,
      "fid": 5530,
      "abbie": 5531,
      "rule": 5532,
      "astron": 5533,
      "windy": 5534,
      "deserve": 5535,
      "materials": 5536,
      "astronaut": 5537,
      "itor": 5538,
      "june": 5539,
      "noses": 5540,
      "igning": 5541,
      "hoo": 5542,
      "wouldna": 5543,
      "wally": 5544,
      "blings": 5545,
      "pans": 5546,
      "hopeful": 5547,
      "temper": 5548,
      "screws": 5549,
      "chefs": 5550,
      "iled": 5551,
      "sadie": 5552,
      "ivity": 5553,
      "robbie": 5554,
      "raindrops": 5555,
      "lettu": 5556,
      "pointy": 5557,
      "wrapping": 5558,
      "siblings": 5559,
      "complained": 5560,
      "complaining": 5561,
      "trampo": 5562,
      "lettuce": 5563,
      "scratches": 5564,
      "basement": 5565,
      "ew": 5566,
      "hus": 5567,
      "nan": 5568,
      "ility": 5569,
      "pres": 5570,
      "granny": 5571,
      "?'": 5572,
      "dip": 5573,
      "nor": 5574,
      "ops": 5575,
      "martha": 5576,
      "darker": 5577,
      "scrubbed": 5578,
      "kiki": 5579,
      "drifted": 5580,
      "trampoline": 5581,
      "jas": 5582,
      "dads": 5583,
      "creativity": 5584,
      "meals": 5585,
      "burst": 5586,
      "puppies": 5587,
      "fluttering": 5588,
      "travelled": 5589,
      "onions": 5590,
      "teased": 5591,
      "ford": 5592,
      "chop": 5593,
      "discussed": 5594,
      "intrigued": 5595,
      "consequences": 5596,
      "gross": 5597,
      "hea": 5598,
      "third": 5599,
      "forgets": 5600,
      "bub": 5601,
      "shoo": 5602,
      "zipping": 5603,
      "ets": 5604,
      "karen": 5605,
      "mate": 5606,
      "weekend": 5607,
      "tunnels": 5608,
      "darling": 5609,
      "including": 5610,
      "stool": 5611,
      "œdo": 5612,
      "helpers": 5613,
      "wobble": 5614,
      "limes": 5615,
      "œwow": 5616,
      "asm": 5617,
      "stung": 5618,
      "source": 5619,
      "gracefully": 5620,
      "handsome": 5621,
      "raincoat": 5622,
      "bully": 5623,
      "tiptoed": 5624,
      "temperature": 5625,
      "10": 5626,
      "blu": 5627,
      "wadd": 5628,
      "ref": 5629,
      "dollars": 5630,
      "coloring": 5631,
      "marsh": 5632,
      "patty": 5633,
      "praying": 5634,
      "cuddly": 5635,
      "mallow": 5636,
      "wona": 5637,
      "snowflake": 5638,
      "panick": 5639,
      "shrinking": 5640,
      "enthusiasm": 5641,
      "separated": 5642,
      "husband": 5643,
      "œcome": 5644,
      "rever": 5645,
      "promises": 5646,
      "couple": 5647,
      "raccoon": 5648,
      "neatly": 5649,
      "rising": 5650,
      "oli": 5651,
      "hog": 5652,
      "abi": 5653,
      "conne": 5654,
      "rivers": 5655,
      "mering": 5656,
      "growls": 5657,
      "oops": 5658,
      "echo": 5659,
      "peep": 5660,
      "afford": 5661,
      "grabbing": 5662,
      "zoey": 5663,
      "among": 5664,
      "fears": 5665,
      "hides": 5666,
      "accomplishment": 5667,
      "cent": 5668,
      "cers": 5669,
      "whoever": 5670,
      "judy": 5671,
      "dollhouse": 5672,
      "batteries": 5673,
      "slices": 5674,
      "janie": 5675,
      "cousin": 5676,
      "beloved": 5677,
      "swept": 5678,
      "plans": 5679,
      "napkins": 5680,
      "printing": 5681,
      "grassy": 5682,
      "horiz": 5683,
      "action": 5684,
      "peacefully": 5685,
      "nibble": 5686,
      "feeding": 5687,
      "shim": 5688,
      "thrown": 5689,
      "cky": 5690,
      "forgiven": 5691,
      "amelia": 5692,
      "blocking": 5693,
      "decorating": 5694,
      "rewarded": 5695,
      "sprinkled": 5696,
      "œyoua": 5697,
      "hour": 5698,
      "œhi": 5699,
      "dot": 5700,
      "artist": 5701,
      "marshmallow": 5702,
      "horizon": 5703,
      "dama": 5704,
      "nif": 5705,
      "arran": 5706,
      "players": 5707,
      "willing": 5708,
      "davey": 5709,
      "forks": 5710,
      "neighbours": 5711,
      "seconds": 5712,
      "damage": 5713,
      "center": 5714,
      "dreamt": 5715,
      "hitting": 5716,
      "matters": 5717,
      "leaning": 5718,
      "backwards": 5719,
      "pecked": 5720,
      "seaweed": 5721,
      "recipe": 5722,
      "students": 5723,
      "dor": 5724,
      "scor": 5725,
      "bodies": 5726,
      "wishing": 5727,
      "wept": 5728,
      "sation": 5729,
      "planning": 5730,
      "silent": 5731,
      "triangles": 5732,
      "dod": 5733,
      "chie": 5734,
      "heading": 5735,
      "visitor": 5736,
      "alien": 5737,
      "itu": 5738,
      "rect": 5739,
      "thud": 5740,
      "gobbled": 5741,
      "bless": 5742,
      "concer": 5743,
      "throughout": 5744,
      "vanilla": 5745,
      "buzzed": 5746,
      "ply": 5747,
      "starfish": 5748,
      "prett": 5749,
      "dancers": 5750,
      "heavier": 5751,
      "mickey": 5752,
      "hawk": 5753,
      "repa": 5754,
      "nood": 5755,
      "gee": 5756,
      "skunk": 5757,
      "puff": 5758,
      "drawn": 5759,
      "magician": 5760,
      "wiping": 5761,
      "snuggle": 5762,
      "toddler": 5763,
      "rustling": 5764,
      "prettier": 5765,
      "pops": 5766,
      "warnings": 5767,
      "designed": 5768,
      "hedgehog": 5769,
      "surroundings": 5770,
      "requested": 5771,
      "repaired": 5772,
      "streets": 5773,
      "ados": 5774,
      "foc": 5775,
      "peppers": 5776,
      "treehouse": 5777,
      "slower": 5778,
      "twice": 5779,
      "scam": 5780,
      "acle": 5781,
      "stella": 5782,
      "ropes": 5783,
      "poster": 5784,
      "audi": 5785,
      "cuddles": 5786,
      "lungs": 5787,
      "cong": 5788,
      "forgetting": 5789,
      "ryan": 5790,
      "surprising": 5791,
      "pens": 5792,
      "avocados": 5793,
      "oysters": 5794,
      "wiggle": 5795,
      "slammed": 5796,
      "itude": 5797,
      "geese": 5798,
      "ggy": 5799,
      "zara": 5800,
      "creations": 5801,
      "belle": 5802,
      "superheroes": 5803,
      "hesitant": 5804,
      "congrat": 5805,
      "tess": 5806,
      "adult": 5807,
      "rains": 5808,
      "stands": 5809,
      "counts": 5810,
      "imagining": 5811,
      "spoonful": 5812,
      "spreading": 5813,
      "battle": 5814,
      "behaving": 5815,
      "dani": 5816,
      "curiously": 5817,
      "ments": 5818,
      "serving": 5819,
      "potion": 5820,
      "audience": 5821,
      "congratul": 5822,
      "resisted": 5823,
      "changing": 5824,
      "borrowed": 5825,
      "firefighter": 5826,
      "swords": 5827,
      "onge": 5828,
      "sponge": 5829,
      "blast": 5830,
      "remembering": 5831,
      "rotted": 5832,
      "breathed": 5833,
      "pippin": 5834,
      "stan": 5835,
      "spat": 5836,
      "napping": 5837,
      "presses": 5838,
      "flop": 5839,
      "warmer": 5840,
      "tested": 5841,
      "delivering": 5842,
      "softer": 5843,
      "eva": 5844,
      "swans": 5845,
      "bras": 5846,
      "touches": 5847,
      "zebras": 5848,
      "screwdriver": 5849,
      "scraped": 5850,
      "pad": 5851,
      "pours": 5852,
      "baths": 5853,
      "mints": 5854,
      "fido": 5855,
      "amed": 5856,
      "polar": 5857,
      "honked": 5858,
      "mesmerized": 5859,
      "refresh": 5860,
      "roars": 5861,
      "endy": 5862,
      "maddy": 5863,
      "biting": 5864,
      "shops": 5865,
      "talks": 5866,
      "wrink": 5867,
      "smelling": 5868,
      "glued": 5869,
      "focused": 5870,
      "swa": 5871,
      "sank": 5872,
      "melo": 5873,
      "blinking": 5874,
      "dropping": 5875,
      "whispers": 5876,
      "glim": 5877,
      "corners": 5878,
      "sailors": 5879,
      "bessie": 5880,
      "least": 5881,
      "sparks": 5882,
      "spins": 5883,
      "lifts": 5884,
      "swallowed": 5885,
      "months": 5886,
      "lings": 5887,
      "toaster": 5888,
      "hael": 5889,
      "sever": 5890,
      "oky": 5891,
      "boards": 5892,
      "ounced": 5893,
      "antic": 5894,
      "rays": 5895,
      "michael": 5896,
      "postman": 5897,
      "granted": 5898,
      "ties": 5899,
      "wea": 5900,
      "meg": 5901,
      "steady": 5902,
      "spikes": 5903,
      "rushing": 5904,
      "spices": 5905,
      "squishy": 5906,
      "hal": 5907,
      "neare": 5908,
      "express": 5909,
      "crew": 5910,
      "certain": 5911,
      "necklaces": 5912,
      "puppet": 5913,
      "reflection": 5914,
      "ists": 5915,
      "stro": 5916,
      "sewing": 5917,
      "pose": 5918,
      "popp": 5919,
      "slips": 5920,
      "heroes": 5921,
      "refreshing": 5922,
      "dam": 5923,
      "tis": 5924,
      "wobbled": 5925,
      "bage": 5926,
      "pennies": 5927,
      "simon": 5928,
      "sniffs": 5929,
      "marshmallows": 5930,
      "stroke": 5931,
      "ev": 5932,
      "rout": 5933,
      "ition": 5934,
      "allo": 5935,
      "chosen": 5936,
      "coral": 5937,
      "purr": 5938,
      "joining": 5939,
      "dived": 5940,
      "wakes": 5941,
      "sneezing": 5942,
      "pigeons": 5943,
      "increased": 5944,
      "reason": 5945,
      "aside": 5946,
      "rib": 5947,
      "greeted": 5948,
      "las": 5949,
      "grandparents": 5950,
      "tage": 5951,
      "tapped": 5952,
      "rotten": 5953,
      "belts": 5954,
      "kittens": 5955,
      "wendy": 5956,
      "assm": 5957,
      "onward": 5958,
      "raging": 5959,
      "loading": 5960,
      "louise": 5961,
      "aimed": 5962,
      "sending": 5963,
      "œnow": 5964,
      "playroom": 5965,
      "robin": 5966,
      "maker": 5967,
      "defe": 5968,
      "sunflowers": 5969,
      "nu": 5970,
      "wri": 5971,
      "plucked": 5972,
      "adults": 5973,
      "maid": 5974,
      "confli": 5975,
      "worrying": 5976,
      "mina": 5977,
      "appreciation": 5978,
      "flight": 5979,
      "encou": 5980,
      "bits": 5981,
      "rainy": 5982,
      "charac": 5983,
      "pins": 5984,
      "angels": 5985,
      "trembled": 5986,
      "scampered": 5987,
      "evil": 5988,
      "wrigg": 5989,
      "ram": 5990,
      "conver": 5991,
      "daring": 5992,
      "scored": 5993,
      "fif": 5994,
      "warri": 5995,
      "œmy": 5996,
      "whata": 5997,
      "manag": 5998,
      "jean": 5999,
      "bells": 6000,
      "oatmeal": 6001,
      "flavors": 6002,
      "warrior": 6003,
      "earn": 6004,
      "drawers": 6005,
      "strongest": 6006,
      "performing": 6007,
      "guests": 6008,
      "freedom": 6009,
      "waddled": 6010,
      "panicked": 6011,
      "sadd": 6012,
      "amoun": 6013,
      "feast": 6014,
      "correct": 6015,
      "sails": 6016,
      "respected": 6017,
      "stacked": 6018,
      "cotton": 6019,
      "tossed": 6020,
      "noodles": 6021,
      "tab": 6022,
      "causing": 6023,
      "wobbly": 6024,
      "prove": 6025,
      "cloudy": 6026,
      "slither": 6027,
      "seashells": 6028,
      "flopsy": 6029,
      "py": 6030,
      "item": 6031,
      "lessons": 6032,
      "janey": 6033,
      "humans": 6034,
      "unsure": 6035,
      "fleas": 6036,
      "...\"": 6037,
      "obeyed": 6038,
      "cess": 6039,
      "hopper": 6040,
      "worn": 6041,
      "watering": 6042,
      "surfing": 6043,
      "ashley": 6044,
      "froggy": 6045,
      "zoomy": 6046,
      "sharks": 6047,
      "cushions": 6048,
      "respond": 6049,
      "stitches": 6050,
      "pture": 6051,
      "doorway": 6052,
      "tables": 6053,
      "rocky": 6054,
      "ships": 6055,
      "shrug": 6056,
      "ignoring": 6057,
      "ease": 6058,
      "faded": 6059,
      "onna": 6060,
      "teen": 6061,
      "defin": 6062,
      "bravest": 6063,
      "grows": 6064,
      "leads": 6065,
      "auntie": 6066,
      "allest": 6067,
      "unity": 6068,
      "chris": 6069,
      "smallest": 6070,
      "cosy": 6071,
      "gardener": 6072,
      "firefly": 6073,
      "colla": 6074,
      "duckling": 6075,
      "genie": 6076,
      "nervously": 6077,
      "engers": 6078,
      "designs": 6079,
      "crashing": 6080,
      "frowning": 6081,
      "firmly": 6082,
      "œok": 6083,
      "height": 6084,
      "rell": 6085,
      "jackie": 6086,
      "passengers": 6087,
      "clues": 6088,
      "twisty": 6089,
      "wider": 6090,
      "robber": 6091,
      "behavior": 6092,
      "poppies": 6093,
      "tissue": 6094,
      "ais": 6095,
      "lyn": 6096,
      "itely": 6097,
      "overcome": 6098,
      "meanwhile": 6099,
      "pays": 6100,
      "politely": 6101,
      "mermaid": 6102,
      "amount": 6103,
      "witched": 6104,
      "pumpkins": 6105,
      "streamers": 6106,
      "ribbit": 6107,
      "encouraging": 6108,
      "definitely": 6109,
      "pant": 6110,
      "tran": 6111,
      "œmom": 6112,
      "œwell": 6113,
      "playtime": 6114,
      "sured": 6115,
      "nearly": 6116,
      "flown": 6117,
      "drivers": 6118,
      "laying": 6119,
      "lifting": 6120,
      "surrendered": 6121,
      "gonna": 6122,
      "œbut": 6123,
      "formed": 6124,
      "cheers": 6125,
      "whose": 6126,
      "blocked": 6127,
      "crossing": 6128,
      "yielded": 6129,
      "cobwebs": 6130,
      "daniel": 6131,
      "dred": 6132,
      "til": 6133,
      "hundred": 6134,
      "shady": 6135,
      "quarreling": 6136,
      "grant": 6137,
      "travelling": 6138,
      "hallo": 6139,
      "blad": 6140,
      "tes": 6141,
      "races": 6142,
      "scient": 6143,
      "brushing": 6144,
      "passports": 6145,
      "ponies": 6146,
      "shovels": 6147,
      "symbols": 6148,
      "wiggly": 6149,
      "performed": 6150,
      "nuzz": 6151,
      "halloween": 6152,
      "issa": 6153,
      "yelped": 6154,
      "results": 6155,
      "suggestion": 6156,
      "squeezing": 6157,
      "campfire": 6158,
      "twinkled": 6159,
      "fantastic": 6160,
      "scurry": 6161,
      "instantly": 6162,
      "melody": 6163,
      "kelly": 6164,
      "tying": 6165,
      "dee": 6166,
      "iona": 6167,
      "shown": 6168,
      "leapt": 6169,
      "speedy": 6170,
      "loops": 6171,
      "punishment": 6172,
      "snowflakes": 6173,
      "pound": 6174,
      "colder": 6175,
      "tricycle": 6176,
      "quieter": 6177,
      "appreciated": 6178,
      "novels": 6179,
      "pippa": 6180,
      "bongo": 6181,
      "eliza": 6182,
      "fiona": 6183,
      "oni": 6184,
      "final": 6185,
      "fia": 6186,
      "fishes": 6187,
      "fills": 6188,
      "jax": 6189,
      "finishing": 6190,
      "occas": 6191,
      "burying": 6192,
      "preparing": 6193,
      "thorns": 6194,
      "tar": 6195,
      "edges": 6196,
      "anger": 6197,
      "officers": 6198,
      "reversed": 6199,
      "via": 6200,
      "stroll": 6201,
      "within": 6202,
      "shall": 6203,
      "chopped": 6204,
      "ava": 6205,
      "rotting": 6206,
      "puzzled": 6207,
      "paths": 6208,
      "reminding": 6209,
      "several": 6210,
      "œif": 6211,
      "force": 6212,
      "notes": 6213,
      "handing": 6214,
      "cleaner": 6215,
      "hairdresser": 6216,
      "forests": 6217,
      "tighter": 6218,
      "healing": 6219,
      "paintbrush": 6220,
      "bandages": 6221,
      "charge": 6222,
      "suffered": 6223,
      "licking": 6224,
      "bis": 6225,
      "œokay": 6226,
      "asty": 6227,
      "ading": 6228,
      "carol": 6229,
      "iley": 6230,
      "braver": 6231,
      "believing": 6232,
      "baskets": 6233,
      "giggles": 6234,
      "sniffing": 6235,
      "disturbing": 6236,
      "burger": 6237,
      "connected": 6238,
      "echoed": 6239,
      "jod": 6240,
      "sou": 6241,
      "œwhere": 6242,
      "sofia": 6243,
      "mischie": 6244,
      "breathing": 6245,
      "quackers": 6246,
      "surfboard": 6247,
      "œof": 6248,
      "cept": 6249,
      "stopping": 6250,
      "waterfall": 6251,
      "syrup": 6252,
      "mailed": 6253,
      "tipped": 6254,
      "seller": 6255,
      "ginger": 6256,
      "acles": 6257,
      "conflict": 6258,
      "ided": 6259,
      "spits": 6260,
      "whoo": 6261,
      "risks": 6262,
      "arranged": 6263,
      "ives": 6264,
      "magnif": 6265,
      "spooky": 6266,
      "packages": 6267,
      "sweetest": 6268,
      "travels": 6269,
      "cottage": 6270,
      "biscu": 6271,
      "lending": 6272,
      "lever": 6273,
      "kevin": 6274,
      "rier": 6275,
      "forgiving": 6276,
      "rather": 6277,
      "conqu": 6278,
      "slipping": 6279,
      "squeaked": 6280,
      "examining": 6281,
      "efforts": 6282,
      "recor": 6283,
      "except": 6284,
      "deed": 6285,
      "bathing": 6286,
      "garbage": 6287,
      "cope": 6288,
      "classm": 6289,
      "marie": 6290,
      "probab": 6291,
      "whispering": 6292,
      "repeating": 6293,
      "tubes": 6294,
      "spells": 6295,
      "frowns": 6296,
      "suffering": 6297,
      "probably": 6298,
      "aim": 6299,
      "lent": 6300,
      "ening": 6301,
      "gears": 6302,
      "coach": 6303,
      "fact": 6304,
      "buses": 6305,
      "swimsuit": 6306,
      "mosquitoes": 6307,
      "humming": 6308,
      "robots": 6309,
      "date": 6310,
      "onse": 6311,
      "elf": 6312,
      "faith": 6313,
      "ruf": 6314,
      "thoughts": 6315,
      "guide": 6316,
      "tops": 6317,
      "flip": 6318,
      "planting": 6319,
      "response": 6320,
      "bothering": 6321,
      "?!\"": 6322,
      "cour": 6323,
      "dump": 6324,
      "trotted": 6325,
      "insp": 6326,
      "megan": 6327,
      "pepp": 6328,
      "gesture": 6329,
      "imagin": 6330,
      "damaged": 6331,
      "bi": 6332,
      "bam": 6333,
      "nana": 6334,
      "sewed": 6335,
      "holly": 6336,
      "elle": 6337,
      "mood": 6338,
      "fins": 6339,
      "explorer": 6340,
      "cowboy": 6341,
      "chocolates": 6342,
      "responsib": 6343,
      "aware": 6344,
      "customers": 6345,
      "tablet": 6346,
      "grip": 6347,
      "lina": 6348,
      "wasting": 6349,
      "soaking": 6350,
      "helen": 6351,
      "peas": 6352,
      "peggy": 6353,
      "maddie": 6354,
      "members": 6355,
      "barry": 6356,
      "driveway": 6357,
      "supported": 6358,
      "vehicles": 6359,
      "decisions": 6360,
      "instruments": 6361,
      "annoyed": 6362,
      "peppa": 6363,
      "€,": 6364,
      "inted": 6365,
      "inter": 6366,
      "saman": 6367,
      "sets": 6368,
      "goodby": 6369,
      "desper": 6370,
      "nurses": 6371,
      "twisting": 6372,
      "weeds": 6373,
      "samantha": 6374,
      "goodbyes": 6375,
      "ee": 6376,
      "tam": 6377,
      "œplease": 6378,
      "reunited": 6379,
      "maisy": 6380,
      "satur": 6381,
      "understands": 6382,
      "knots": 6383,
      "pupils": 6384,
      "inchworm": 6385,
      "accomplished": 6386,
      "mam": 6387,
      "twent": 6388,
      "teles": 6389,
      "reapp": 6390,
      "dangers": 6391,
      "scent": 6392,
      "calmly": 6393,
      "solving": 6394,
      "tasting": 6395,
      "frankie": 6396,
      "twenty": 6397,
      "telescope": 6398,
      "lan": 6399,
      "stumble": 6400,
      "newfound": 6401,
      "granddaughter": 6402,
      "ilda": 6403,
      "crystals": 6404,
      "discussing": 6405,
      "permitted": 6406,
      "refuse": 6407,
      "saturday": 6408,
      "thump": 6409,
      "treated": 6410,
      "squaw": 6411,
      "wisely": 6412,
      "heartbroken": 6413,
      "crowns": 6414,
      "tempt": 6415,
      "conversation": 6416,
      "reappear": 6417,
      "lor": 6418,
      "creams": 6419,
      "belongings": 6420,
      "tidied": 6421,
      "whistles": 6422,
      "footsteps": 6423,
      "changes": 6424,
      "guessing": 6425,
      "spills": 6426,
      "jonny": 6427,
      "classmates": 6428,
      "awoke": 6429,
      "ien": 6430,
      "pand": 6431,
      "spies": 6432,
      "bracele": 6433,
      "explains": 6434,
      "teachers": 6435,
      "statues": 6436,
      "speeding": 6437,
      "darlings": 6438,
      "aliens": 6439,
      "swollen": 6440,
      "reassured": 6441,
      "masterpiece": 6442,
      "insisting": 6443,
      "bubba": 6444,
      "bracelets": 6445,
      "jugg": 6446,
      "rely": 6447,
      "chilly": 6448,
      "mae": 6449,
      "posit": 6450,
      "flowing": 6451,
      "flora": 6452,
      "zee": 6453,
      "prayers": 6454,
      "figures": 6455,
      "katy": 6456,
      "peeled": 6457,
      "whoosh": 6458,
      "nasty": 6459,
      "vines": 6460,
      "œthe": 6461,
      "rats": 6462,
      "flipped": 6463,
      "nibbled": 6464,
      "turtles": 6465,
      "scarecrow": 6466,
      "rufus": 6467,
      "gap": 6468,
      "spy": 6469,
      "elsa": 6470,
      "taped": 6471,
      "woo": 6472,
      "afar": 6473,
      "foxes": 6474,
      "toolbox": 6475,
      "paula": 6476,
      "ghosts": 6477,
      "seagulls": 6478,
      "inspired": 6479,
      "vive": 6480,
      "icky": 6481,
      "untied": 6482,
      "beautifully": 6483,
      "toward": 6484,
      "comforting": 6485,
      "pandas": 6486,
      "locks": 6487,
      "liam": 6488,
      "ends": 6489,
      "otherwise": 6490,
      "birdhouse": 6491,
      "thanking": 6492,
      "beaver": 6493,
      "survive": 6494,
      "rowed": 6495,
      "gazing": 6496,
      "wealth": 6497,
      "experien": 6498,
      "simply": 6499,
      "exercises": 6500,
      "congratulated": 6501,
      "vegg": 6502,
      "rious": 6503,
      "idey": 6504,
      "spidey": 6505,
      "kings": 6506,
      "marve": 6507,
      "patches": 6508,
      "artwork": 6509,
      "ugging": 6510,
      "temp": 6511,
      "banged": 6512,
      "honking": 6513,
      "delayed": 6514,
      "presented": 6515,
      "veggies": 6516,
      "nat": 6517,
      "roger": 6518,
      "rudy": 6519,
      "jud": 6520,
      "covering": 6521,
      "troubles": 6522,
      "labels": 6523,
      "sweaty": 6524,
      "cie": 6525,
      "sess": 6526,
      "tapping": 6527,
      "focus": 6528,
      "grandfather": 6529,
      "squished": 6530,
      "scram": 6531,
      "activity": 6532,
      "wounds": 6533,
      "cca": 6534,
      "ilder": 6535,
      "loses": 6536,
      "becca": 6537,
      "roo": 6538,
      "cara": 6539,
      "manners": 6540,
      "untie": 6541,
      "convin": 6542,
      "sweep": 6543,
      "trusting": 6544,
      "apologised": 6545,
      "tessa": 6546,
      "scurrying": 6547,
      "dep": 6548,
      "leap": 6549,
      "smashed": 6550,
      "builder": 6551,
      "gues": 6552,
      "dressing": 6553,
      "purpose": 6554,
      "joins": 6555,
      "drift": 6556,
      "jars": 6557,
      "curl": 6558,
      "beeped": 6559,
      "otters": 6560,
      "emerged": 6561,
      "encouragement": 6562,
      "swaying": 6563,
      "nora": 6564,
      "dory": 6565,
      "concert": 6566,
      "correctly": 6567,
      "rum": 6568,
      "shrunk": 6569,
      "bitten": 6570,
      "pleaded": 6571,
      "warmly": 6572,
      "tires": 6573,
      "freddie": 6574,
      "flaps": 6575,
      "glittering": 6576,
      "anticip": 6577,
      "whim": 6578,
      "stall": 6579,
      "chin": 6580,
      "sped": 6581,
      "terry": 6582,
      "nests": 6583,
      "wrinkled": 6584,
      "aisle": 6585,
      "cluck": 6586,
      "œhey": 6587,
      "arrr": 6588,
      "becky": 6589,
      "girla": 6590,
      "fishy": 6591,
      "displayed": 6592,
      "pedaled": 6593,
      "designing": 6594,
      "prick": 6595,
      "magazines": 6596,
      "opport": 6597,
      "forgiveness": 6598,
      "nearest": 6599,
      "trans": 6600,
      "tuck": 6601,
      "sheets": 6602,
      "declar": 6603,
      "type": 6604,
      "flick": 6605,
      "picnics": 6606,
      "cleared": 6607,
      "osite": 6608,
      "rescuing": 6609,
      "opposite": 6610,
      "knit": 6611,
      "nuzzled": 6612,
      "tment": 6613,
      "vince": 6614,
      "address": 6615,
      "adds": 6616,
      "grandchild": 6617,
      "swimmer": 6618,
      "windowsill": 6619,
      "uniforms": 6620,
      "swayed": 6621,
      "shimmering": 6622,
      "anticipation": 6623,
      "declared": 6624,
      "gabby": 6625,
      "sill": 6626,
      "shelly": 6627,
      "sunscreen": 6628,
      "genero": 6629,
      "visits": 6630,
      "images": 6631,
      "flips": 6632,
      "tidying": 6633,
      "business": 6634,
      "heaven": 6635,
      "dodged": 6636,
      "manager": 6637,
      "court": 6638,
      "generosity": 6639,
      "sav": 6640,
      "beating": 6641,
      "fully": 6642,
      "doorbell": 6643,
      "purrs": 6644,
      "psed": 6645,
      "decoration": 6646,
      "thankfully": 6647,
      "discoveries": 6648,
      "attacked": 6649,
      "sadder": 6650,
      "collapsed": 6651,
      "experienced": 6652,
      "scrambled": 6653,
      "joked": 6654,
      "munk": 6655,
      "tumbled": 6656,
      "willi": 6657,
      "amanda": 6658,
      "ummies": 6659,
      "badger": 6660,
      "grandson": 6661,
      "cracks": 6662,
      "backpacks": 6663,
      "groan": 6664,
      "chipmunk": 6665,
      "nancy": 6666,
      "routine": 6667,
      "william": 6668,
      "tummies": 6669,
      "eddie": 6670,
      "failed": 6671,
      "stew": 6672,
      "mony": 6673,
      "million": 6674,
      "crabby": 6675,
      "diamonds": 6676,
      "toothbrush": 6677,
      "jason": 6678,
      "olivia": 6679,
      "scientist": 6680,
      "oink": 6681,
      "encoun": 6682,
      "iment": 6683,
      "grat": 6684,
      "goodies": 6685,
      "nodding": 6686,
      "blur": 6687,
      "phil": 6688,
      "singers": 6689,
      "fires": 6690,
      "beehive": 6691,
      "bats": 6692,
      "cocoon": 6693,
      "terrified": 6694,
      "lipstick": 6695,
      "encountered": 6696,
      "athan": 6697,
      "œsee": 6698,
      "idence": 6699,
      "dripping": 6700,
      "scooters": 6701,
      "snaps": 6702,
      "admiration": 6703,
      "jonathan": 6704,
      "sternly": 6705,
      "astronauts": 6706,
      "swap": 6707,
      "gratitude": 6708,
      "inches": 6709,
      "argum": 6710,
      "ilities": 6711,
      "plugged": 6712,
      "amber": 6713,
      "vented": 6714,
      "convince": 6715,
      "blown": 6716,
      "brightest": 6717,
      "germs": 6718,
      "slowed": 6719,
      "minds": 6720,
      "melissa": 6721,
      "meows": 6722,
      "crawls": 6723,
      "applauding": 6724,
      "weapons": 6725,
      "customer": 6726,
      "visitors": 6727,
      "œgood": 6728,
      "soo": 6729,
      "shor": 6730,
      "explor": 6731,
      "member": 6732,
      "orders": 6733,
      "extraordinary": 6734,
      "films": 6735,
      "floats": 6736,
      "matey": 6737,
      "lil": 6738,
      "alan": 6739,
      "lowered": 6740,
      "pos": 6741,
      "rudolph": 6742,
      "angle": 6743,
      "condu": 6744,
      "parted": 6745,
      "flashed": 6746,
      "scul": 6747,
      "umbrell": 6748,
      "soapy": 6749,
      "laptop": 6750,
      "munching": 6751,
      "recorder": 6752,
      "umbrellas": 6753,
      "signing": 6754,
      "erk": 6755,
      "ruth": 6756,
      "drowned": 6757,
      "craf": 6758,
      "cupcake": 6759,
      "elect": 6760,
      "reminds": 6761,
      "breaths": 6762,
      "checkout": 6763,
      "goats": 6764,
      "meowing": 6765,
      "brian": 6766,
      "scolds": 6767,
      "ause": 6768,
      "fond": 6769,
      "switched": 6770,
      "joanna": 6771,
      "clerk": 6772,
      "snor": 6773,
      "snug": 6774,
      "honesty": 6775,
      "teams": 6776,
      "bounces": 6777,
      "scratching": 6778,
      "quacking": 6779,
      "applause": 6780,
      "beaming": 6781,
      "increasing": 6782,
      "instrument": 6783,
      "responded": 6784,
      "shorter": 6785,
      "clicked": 6786,
      "ative": 6787,
      "rick": 6788,
      "hover": 6789,
      "elbow": 6790,
      "tentacles": 6791,
      "questioned": 6792,
      "supplied": 6793,
      "lenny": 6794,
      "steering": 6795,
      "rumbling": 6796,
      "ware": 6797,
      "carries": 6798,
      "cheated": 6799,
      "cares": 6800,
      "dears": 6801,
      "petting": 6802,
      "testing": 6803,
      "flashing": 6804,
      "seals": 6805,
      "bothered": 6806,
      "confidence": 6807,
      "characters": 6808,
      "convinced": 6809,
      "conductor": 6810,
      "''": 6811,
      "ey": 6812,
      "gus": 6813,
      "œsure": 6814,
      "forgives": 6815,
      "shorts": 6816,
      "realizes": 6817,
      "scrub": 6818,
      "zooms": 6819,
      "tilted": 6820,
      "mamma": 6821,
      "œwho": 6822,
      "haven": 6823,
      "ades": 6824,
      "admit": 6825,
      "cooper": 6826,
      "prevented": 6827,
      "floors": 6828,
      "tests": 6829,
      "relaxing": 6830,
      "destroying": 6831,
      "haircuts": 6832,
      "sprinkle": 6833,
      "offering": 6834,
      "models": 6835,
      "awful": 6836,
      "mischievous": 6837,
      "smoking": 6838,
      "cock": 6839,
      "tyler": 6840,
      "common": 6841,
      "pleas": 6842,
      "rowave": 6843,
      "concent": 6844,
      "bobbie": 6845,
      "flock": 6846,
      "movements": 6847,
      "claus": 6848,
      "queens": 6849,
      "microwave": 6850,
      "envelopes": 6851,
      "crocodiles": 6852,
      "environ": 6853,
      "knocking": 6854,
      "tips": 6855,
      "conquered": 6856,
      "environment": 6857,
      "bou": 6858,
      "gary": 6859,
      "washes": 6860,
      "raising": 6861,
      "quet": 6862,
      "hardest": 6863,
      "compan": 6864,
      "serv": 6865,
      "stretches": 6866,
      "burnt": 6867,
      "midnight": 6868,
      "strips": 6869,
      "hunters": 6870,
      "sprout": 6871,
      "twists": 6872,
      "unpacking": 6873,
      "robbers": 6874,
      "bbling": 6875,
      "pout": 6876,
      "waded": 6877,
      "checks": 6878,
      "expecting": 6879,
      "surely": 6880,
      "martin": 6881,
      "winding": 6882,
      "matilda": 6883,
      "foxy": 6884,
      "youngest": 6885,
      "observing": 6886,
      "camel": 6887,
      "gemma": 6888,
      "buckled": 6889,
      "paddling": 6890,
      "container": 6891,
      "sirens": 6892,
      "gallo": 6893,
      "hank": 6894,
      "plug": 6895,
      "moat": 6896,
      "expert": 6897,
      "jobs": 6898,
      "cowboys": 6899,
      "announced": 6900,
      "zips": 6901,
      "tickling": 6902,
      "stamped": 6903,
      "knives": 6904,
      "biscuit": 6905,
      "sculpture": 6906,
      "gul": 6907,
      "tho": 6908,
      "feli": 6909,
      "puck": 6910,
      "sandra": 6911,
      "dragonfly": 6912,
      "storms": 6913,
      "mattered": 6914,
      "pinching": 6915,
      "gracie": 6916,
      "messes": 6917,
      "argument": 6918,
      "int": 6919,
      "moma": 6920,
      "elsie": 6921,
      "shrank": 6922,
      "grumbled": 6923,
      "annabelle": 6924,
      "clut": 6925,
      "combed": 6926,
      "rows": 6927,
      "scrun": 6928,
      "bruno": 6929,
      "active": 6930,
      "charlot": 6931,
      "clearly": 6932,
      "tearing": 6933,
      "greet": 6934,
      "exploration": 6935,
      "ooh": 6936,
      "phe": 6937,
      "shat": 6938,
      "œmaybe": 6939,
      "outfits": 6940,
      "caw": 6941,
      "ruff": 6942,
      "bride": 6943,
      "exploded": 6944,
      "nights": 6945,
      "soundly": 6946,
      "experiences": 6947,
      "puppets": 6948,
      "imaginary": 6949,
      "bouquet": 6950,
      "charlotte": 6951,
      "dial": 6952,
      "elo": 6953,
      "ramp": 6954,
      "anie": 6955,
      "compar": 6956,
      "gardens": 6957,
      "consid": 6958,
      "rent": 6959,
      "brant": 6960,
      "smelt": 6961,
      "gasp": 6962,
      "squeezes": 6963,
      "salon": 6964,
      "vibrant": 6965,
      "burgers": 6966,
      "behaviour": 6967,
      "occasion": 6968,
      "responsibility": 6969,
      "temptation": 6970,
      "fain": 6971,
      "mommies": 6972,
      "poses": 6973,
      "finny": 6974,
      "stetho": 6975,
      "scen": 6976,
      "explaining": 6977,
      "pressing": 6978,
      "teapot": 6979,
      "sprays": 6980,
      "pizzas": 6981,
      "checking": 6982,
      "leaking": 6983,
      "communic": 6984,
      "pinchy": 6985,
      "oliver": 6986,
      "possess": 6987,
      "riley": 6988,
      "thir": 6989,
      "quilt": 6990,
      "overhead": 6991,
      "traded": 6992,
      "rewards": 6993,
      "minded": 6994,
      "peeped": 6995,
      "glimmering": 6996,
      "tammy": 6997,
      "phew": 6998,
      "killed": 6999,
      "allie": 7000,
      "sometime": 7001,
      "cheaper": 7002,
      "napped": 7003,
      "waters": 7004,
      "brad": 7005,
      "languages": 7006,
      "cubs": 7007,
      "bonnie": 7008,
      "expression": 7009,
      "wriggled": 7010,
      "companion": 7011,
      "stethoscope": 7012,
      "bond": 7013,
      "ishes": 7014,
      "mila": 7015,
      "ying": 7016,
      "insepar": 7017,
      "erase": 7018,
      "ural": 7019,
      "cheat": 7020,
      "ability": 7021,
      "bubbly": 7022,
      "brake": 7023,
      "closing": 7024,
      "sandpit": 7025,
      "whales": 7026,
      "alligators": 7027,
      "hunting": 7028,
      "particularly": 7029,
      "popsic": 7030,
      "inseparable": 7031,
      "awhile": 7032,
      "mered": 7033,
      "€¦": 7034,
      "intent": 7035,
      "local": 7036,
      "necess": 7037,
      "grily": 7038,
      "bluebird": 7039,
      "produ": 7040,
      "dryer": 7041,
      "stuffing": 7042,
      "miller": 7043,
      "sincere": 7044,
      "april": 7045,
      "providing": 7046,
      "opinions": 7047,
      "textures": 7048,
      "defeated": 7049,
      "earned": 7050,
      "opportunity": 7051,
      "concentr": 7052,
      "ering": 7053,
      "hiss": 7054,
      "unable": 7055,
      "upside": 7056,
      "cafe": 7057,
      "grad": 7058,
      "types": 7059,
      "preschool": 7060,
      "venir": 7061,
      "acing": 7062,
      "brains": 7063,
      "cleans": 7064,
      "ips": 7065,
      "calmer": 7066,
      "chickie": 7067,
      "crops": 7068,
      "cheerfully": 7069,
      "meatballs": 7070,
      "fascinating": 7071,
      "souvenir": 7072,
      "bound": 7073,
      "pouch": 7074,
      "ounce": 7075,
      "ravi": 7076,
      "carla": 7077,
      "cheating": 7078,
      "squinted": 7079,
      "trig": 7080,
      "hotter": 7081,
      "blank": 7082,
      "distrac": 7083,
      "glided": 7084,
      "burns": 7085,
      "annoying": 7086,
      "shattered": 7087,
      "goo": 7088,
      "abra": 7089,
      "dollar": 7090,
      "phones": 7091,
      "wildflowers": 7092,
      "hangers": 7093,
      "gasps": 7094,
      "pepperoni": 7095,
      "prickly": 7096,
      "servant": 7097,
      "trigger": 7098,
      "doug": 7099,
      "hisses": 7100,
      "amused": 7101,
      "maje": 7102,
      "tale": 7103,
      "shallow": 7104,
      "skies": 7105,
      "mona": 7106,
      "cutter": 7107,
      "bruises": 7108,
      "passes": 7109,
      "messages": 7110,
      "returning": 7111,
      "freezing": 7112,
      "traveling": 7113,
      "wiser": 7114,
      "miracle": 7115,
      "swirls": 7116,
      "enemy": 7117,
      "bubbling": 7118,
      "pantry": 7119,
      "bamboo": 7120,
      "necessary": 7121,
      "aho": 7122,
      "hike": 7123,
      "lers": 7124,
      "tions": 7125,
      "becomes": 7126,
      "ami": 7127,
      "cops": 7128,
      "mow": 7129,
      "getic": 7130,
      "wolves": 7131,
      "riverbank": 7132,
      "answering": 7133,
      "repairman": 7134,
      "jasmine": 7135,
      "surprisingly": 7136,
      "stanley": 7137,
      "ahoy": 7138,
      "apers": 7139,
      "ricky": 7140,
      "chill": 7141,
      "backs": 7142,
      "jose": 7143,
      "finishes": 7144,
      "shines": 7145,
      "treas": 7146,
      "grasshopper": 7147,
      "farmers": 7148,
      "mysteries": 7149,
      "engines": 7150,
      "risk": 7151,
      "lumberjack": 7152,
      "deserved": 7153,
      "kathy": 7154,
      "healthier": 7155,
      "natural": 7156,
      "',": 7157,
      "scow": 7158,
      "vast": 7159,
      "als": 7160,
      "unfamiliar": 7161,
      "aret": 7162,
      "sprang": 7163,
      "whined": 7164,
      "bud": 7165,
      "ketch": 7166,
      "moonlight": 7167,
      "caterpillars": 7168,
      "sweeter": 7169,
      "springtime": 7170,
      "chatted": 7171,
      "coolest": 7172,
      "lasers": 7173,
      "bom": 7174,
      "lump": 7175,
      "prank": 7176,
      "sipped": 7177,
      "raking": 7178,
      "whel": 7179,
      "overwhel": 7180,
      "actor": 7181,
      "johny": 7182,
      "prizes": 7183,
      "cuddling": 7184,
      "apology": 7185,
      "scares": 7186,
      "computers": 7187,
      "invites": 7188,
      "munched": 7189,
      "pleasant": 7190,
      "swat": 7191,
      "oma": 7192,
      "rie": 7193,
      "necks": 7194,
      "rosa": 7195,
      "odd": 7196,
      "capt": 7197,
      "details": 7198,
      "airplanes": 7199,
      "pills": 7200,
      "crou": 7201,
      "vio": 7202,
      "thieves": 7203,
      "weighs": 7204,
      "spilling": 7205,
      "honks": 7206,
      "magnifying": 7207,
      "reappeared": 7208,
      "bomb": 7209,
      "cages": 7210,
      "dashed": 7211,
      "jilly": 7212,
      "asted": 7213,
      "wanna": 7214,
      "faction": 7215,
      "juic": 7216,
      "compete": 7217,
      "traps": 7218,
      "snapping": 7219,
      "cris": 7220,
      "successfully": 7221,
      "aeroplanes": 7222,
      "slapping": 7223,
      "satisfaction": 7224,
      "hootie": 7225,
      "treasured": 7226,
      "hmm": 7227,
      "jing": 7228,
      "zack": 7229,
      "œbe": 7230,
      "canv": 7231,
      "donkey": 7232,
      "keepers": 7233,
      "fluff": 7234,
      "chewy": 7235,
      "example": 7236,
      "approach": 7237,
      "peacock": 7238,
      "chatting": 7239,
      "certainly": 7240,
      "target": 7241,
      "whimpered": 7242,
      "ketchup": 7243,
      "cled": 7244,
      "longest": 7245,
      "steven": 7246,
      "boil": 7247,
      "watermelon": 7248,
      "meaning": 7249,
      "snorted": 7250,
      "jets": 7251,
      "cherish": 7252,
      "croaked": 7253,
      "suppor": 7254,
      "volcanoes": 7255,
      "energetic": 7256,
      "weighing": 7257,
      "glittered": 7258,
      "situations": 7259,
      "positive": 7260,
      "judges": 7261,
      "dou": 7262,
      "sasha": 7263,
      "uff": 7264,
      "adabra": 7265,
      "foreshadow": 7266,
      "shares": 7267,
      "discouraged": 7268,
      "practised": 7269,
      "protection": 7270,
      "teamwork": 7271,
      "tickles": 7272,
      "newspapers": 7273,
      "pipes": 7274,
      "attitude": 7275,
      "joyfully": 7276,
      "jody": 7277,
      "levers": 7278,
      "pounced": 7279,
      "œyay": 7280,
      "ria": 7281,
      "rips": 7282,
      "elace": 7283,
      "moons": 7284,
      "joan": 7285,
      "goodness": 7286,
      "iff": 7287,
      "shoelace": 7288,
      "chopping": 7289,
      "swimsuits": 7290,
      "buggy": 7291,
      "trusts": 7292,
      "embarrassing": 7293,
      "vests": 7294,
      "styles": 7295,
      "hooks": 7296,
      "medals": 7297,
      "wiggling": 7298,
      "demanding": 7299,
      "thrill": 7300,
      "repeats": 7301,
      "bends": 7302,
      "shrugs": 7303,
      "groaned": 7304,
      "canvas": 7305,
      "supporting": 7306,
      "!'.": 7307,
      "ands": 7308,
      "inspec": 7309,
      "onde": 7310,
      "witches": 7311,
      "funn": 7312,
      "joanne": 7313,
      "abrac": 7314,
      "facing": 7315,
      "rung": 7316,
      "underwater": 7317,
      "blonde": 7318,
      "sweetly": 7319,
      "penelo": 7320,
      "appearance": 7321,
      "digs": 7322,
      "stripe": 7323,
      "thicker": 7324,
      "rewarding": 7325,
      "vinegar": 7326,
      "experiment": 7327,
      "thumbs": 7328,
      "cotch": 7329,
      "hummed": 7330,
      "hopscotch": 7331,
      "nibbles": 7332,
      "hundreds": 7333,
      "compared": 7334,
      "gradually": 7335,
      "distracted": 7336,
      "abracadabra": 7337,
      "penelope": 7338,
      "coug": 7339,
      "jured": 7340,
      "mick": 7341,
      "plo": 7342,
      "slee": 7343,
      "timid": 7344,
      "hoses": 7345,
      "noticing": 7346,
      "storing": 7347,
      "popping": 7348,
      "skirts": 7349,
      "rench": 7350,
      "lizards": 7351,
      "meadows": 7352,
      "cracker": 7353,
      "hoops": 7354,
      "guarding": 7355,
      "scattering": 7356,
      "munch": 7357,
      "sweaters": 7358,
      "enemies": 7359,
      "slithered": 7360,
      "blade": 7361,
      "electri": 7362,
      "communicate": 7363,
      "aa": 7364,
      "fade": 7365,
      "inju": 7366,
      "injured": 7367,
      "beast": 7368,
      "eline": 7369,
      "josie": 7370,
      "pecks": 7371,
      "acts": 7372,
      "enjoyable": 7373,
      "differently": 7374,
      "fireflies": 7375,
      "luckiest": 7376,
      "tempted": 7377,
      "recess": 7378,
      "costs": 7379,
      "gw": 7380,
      "rebuild": 7381,
      "ena": 7382,
      "stur": 7383,
      "format": 7384,
      "lava": 7385,
      "peak": 7386,
      "runner": 7387,
      "nicest": 7388,
      "talents": 7389,
      "daily": 7390,
      "guards": 7391,
      "welcoming": 7392,
      "snar": 7393,
      "sleeps": 7394,
      "claw": 7395,
      "marking": 7396,
      "whipped": 7397,
      "obst": 7398,
      "croak": 7399,
      "hippos": 7400,
      "kneeling": 7401,
      "complim": 7402,
      "ibly": 7403,
      "pounds": 7404,
      "faint": 7405,
      "coughed": 7406,
      "gwen": 7407,
      "groom": 7408,
      "gummy": 7409,
      "shave": 7410,
      "tugging": 7411,
      "wig": 7412,
      "angrily": 7413,
      "rebecca": 7414,
      "hissing": 7415,
      "benches": 7416,
      "worst": 7417,
      "shoots": 7418,
      "cuc": 7419,
      "bowing": 7420,
      "purring": 7421,
      "wrapper": 7422,
      "loyalty": 7423,
      "beetles": 7424,
      "kayaking": 7425,
      "bicycles": 7426,
      "poisonous": 7427,
      "choosing": 7428,
      "smartest": 7429,
      "blades": 7430,
      "overwhelmed": 7431,
      "electricity": 7432,
      "formation": 7433,
      "gates": 7434,
      "eras": 7435,
      "iding": 7436,
      "def": 7437,
      "greta": 7438,
      "johna": 7439,
      "doorstep": 7440,
      "bloss": 7441,
      "toni": 7442,
      "larger": 7443,
      "crickets": 7444,
      "silently": 7445,
      "facts": 7446,
      "pokes": 7447,
      "blushed": 7448,
      "strokes": 7449,
      "violet": 7450,
      "aboard": 7451,
      "dition": 7452,
      "mur": 7453,
      "andrew": 7454,
      "invent": 7455,
      "eric": 7456,
      "aly": 7457,
      "dock": 7458,
      "playdate": 7459,
      "aller": 7460,
      "absolut": 7461,
      "whir": 7462,
      "owns": 7463,
      "flashes": 7464,
      "mustered": 7465,
      "minnie": 7466,
      "tunes": 7467,
      "pilots": 7468,
      "improving": 7469,
      "cells": 7470,
      "marveled": 7471,
      "scenery": 7472,
      "intently": 7473,
      "absolute": 7474,
      "gic": 7475,
      "oos": 7476,
      "sno": 7477,
      "xie": 7478,
      "hamm": 7479,
      "ared": 7480,
      "aroma": 7481,
      "wee": 7482,
      "unless": 7483,
      "rosy": 7484,
      "spic": 7485,
      "exchange": 7486,
      "comets": 7487,
      "jacka": 7488,
      "achoo": 7489,
      "sitter": 7490,
      "colin": 7491,
      "magically": 7492,
      "messed": 7493,
      "barrow": 7494,
      "visible": 7495,
      "landing": 7496,
      "drying": 7497,
      "tippy": 7498,
      "stirs": 7499,
      "jogger": 7500,
      "chews": 7501,
      "allowing": 7502,
      "sneezes": 7503,
      "intelligence": 7504,
      "mugs": 7505,
      "scoops": 7506,
      "crowded": 7507,
      "property": 7508,
      "hesitation": 7509,
      "œwea": 7510,
      "transformed": 7511,
      "crouched": 7512,
      "avery": 7513,
      "llie": 7514,
      "rinse": 7515,
      "ande": 7516,
      "erup": 7517,
      "level": 7518,
      "pled": 7519,
      "bold": 7520,
      "playhouse": 7521,
      "racer": 7522,
      "spears": 7523,
      "poles": 7524,
      "pancake": 7525,
      "kangaroos": 7526,
      "heels": 7527,
      "hamster": 7528,
      "revealing": 7529,
      "cousins": 7530,
      "hooves": 7531,
      "defeat": 7532,
      "thest": 7533,
      "aston": 7534,
      "habit": 7535,
      "alley": 7536,
      "stun": 7537,
      "strolled": 7538,
      "soda": 7539,
      "igner": 7540,
      "unwrapped": 7541,
      "grump": 7542,
      "harmony": 7543,
      "kinder": 7544,
      "stores": 7545,
      "movement": 7546,
      "patrick": 7547,
      "jennie": 7548,
      "drip": 7549,
      "townspe": 7550,
      "alongside": 7551,
      "circled": 7552,
      "bruce": 7553,
      "disappointment": 7554,
      "leah": 7555,
      "guardian": 7556,
      "yawning": 7557,
      "caroline": 7558,
      "townspeople": 7559,
      "tant": 7560,
      "vac": 7561,
      "itlyn": 7562,
      "isna": 7563,
      "aming": 7564,
      "unfair": 7565,
      "gogo": 7566,
      "whirl": 7567,
      "gress": 7568,
      "shinier": 7569,
      "stepping": 7570,
      "cases": 7571,
      "trading": 7572,
      "tongues": 7573,
      "scene": 7574,
      "hudd": 7575,
      "scores": 7576,
      "wheelbarrow": 7577,
      "disappearing": 7578,
      "stains": 7579,
      "nations": 7580,
      "enger": 7581,
      "albert": 7582,
      "section": 7583,
      "libby": 7584,
      "boiling": 7585,
      "wance": 7586,
      "exhi": 7587,
      "poop": 7588,
      "det": 7589,
      "waking": 7590,
      "usion": 7591,
      "warmed": 7592,
      "craft": 7593,
      "countries": 7594,
      "roller": 7595,
      "seatbelt": 7596,
      "steph": 7597,
      "ankle": 7598,
      "rory": 7599,
      "halfway": 7600,
      "bumping": 7601,
      "globe": 7602,
      "banging": 7603,
      "chanted": 7604,
      "bulbs": 7605,
      "challenged": 7606,
      "caution": 7607,
      "sensation": 7608,
      "allowance": 7609,
      "soothing": 7610,
      "shoelaces": 7611,
      "tantrum": 7612,
      "till": 7613,
      "œhow": 7614,
      "ari": 7615,
      "attemp": 7616,
      "hoor": 7617,
      "mac": 7618,
      "pest": 7619,
      "creak": 7620,
      "sooner": 7621,
      "johnnie": 7622,
      "groups": 7623,
      "performers": 7624,
      "lawyers": 7625,
      "motorcycles": 7626,
      "exercising": 7627,
      "pingo": 7628,
      "kaitlyn": 7629,
      "thirty": 7630,
      "absolutely": 7631,
      "ko": 7632,
      "mie": 7633,
      "œdon": 7634,
      "isie": 7635,
      "alled": 7636,
      "maisie": 7637,
      "lookout": 7638,
      "fris": 7639,
      "whine": 7640,
      "mayor": 7641,
      "bait": 7642,
      "lunchtime": 7643,
      "current": 7644,
      "riddle": 7645,
      "leans": 7646,
      "quacks": 7647,
      "helicopters": 7648,
      "musicians": 7649,
      "chooses": 7650,
      "kai": 7651,
      "cooperate": 7652,
      "felix": 7653,
      "sturdy": 7654,
      "hooray": 7655,
      "glistening": 7656,
      "rita": 7657,
      "sinking": 7658,
      "œare": 7659,
      "rey": 7660,
      "secur": 7661,
      "illas": 7662,
      "tained": 7663,
      "birdseed": 7664,
      "lush": 7665,
      "angrier": 7666,
      "untangle": 7667,
      "rowing": 7668,
      "babysitter": 7669,
      "bushy": 7670,
      "oceans": 7671,
      "thunderstorm": 7672,
      "gorillas": 7673,
      "chains": 7674,
      "knobs": 7675,
      "champ": 7676,
      "invitations": 7677,
      "udged": 7678,
      "sleds": 7679,
      "interrup": 7680,
      "lilies": 7681,
      "astonished": 7682,
      "aches": 7683,
      "scut": 7684,
      "ites": 7685,
      "undone": 7686,
      "hollow": 7687,
      "royal": 7688,
      "maps": 7689,
      "rack": 7690,
      "juli": 7691,
      "pickles": 7692,
      "process": 7693,
      "chili": 7694,
      "drill": 7695,
      "duke": 7696,
      "cupboards": 7697,
      "designer": 7698,
      "copied": 7699,
      "freya": 7700,
      "binoc": 7701,
      "clip": 7702,
      "ticking": 7703,
      "imaginations": 7704,
      "janet": 7705,
      "peels": 7706,
      "nightmares": 7707,
      "coughing": 7708,
      "swapped": 7709,
      "huddled": 7710,
      "ostri": 7711,
      "hatched": 7712,
      "foam": 7713,
      "laby": 7714,
      "carefree": 7715,
      "condition": 7716,
      "torto": 7717,
      "softened": 7718,
      "horri": 7719,
      "mindful": 7720,
      "shyly": 7721,
      "hangs": 7722,
      "cloths": 7723,
      "nellie": 7724,
      "camps": 7725,
      "beeping": 7726,
      "unlocking": 7727,
      "wiggles": 7728,
      "confusion": 7729,
      "lullaby": 7730,
      "fetched": 7731,
      "recommendation": 7732,
      "nanny": 7733,
      "character": 7734,
      "desperately": 7735,
      "juiciest": 7736,
      "attempts": 7737,
      "ostriches": 7738,
      "cig": 7739,
      "dled": 7740,
      "narrow": 7741,
      "tay": 7742,
      "twel": 7743,
      "toto": 7744,
      "asp": 7745,
      "state": 7746,
      "stinky": 7747,
      "roamed": 7748,
      "mack": 7749,
      "therea": 7750,
      "ulars": 7751,
      "carton": 7752,
      "mana": 7753,
      "harvest": 7754,
      "compromise": 7755,
      "realizing": 7756,
      "squirted": 7757,
      "fights": 7758,
      "bellies": 7759,
      "piled": 7760,
      "peacefulness": 7761,
      "trusty": 7762,
      "spoiling": 7763,
      "fuzz": 7764,
      "courageous": 7765,
      "sleigh": 7766,
      "pedaling": 7767,
      "structures": 7768,
      "solutions": 7769,
      "wooly": 7770,
      "detect": 7771,
      "campsite": 7772,
      "cigaret": 7773,
      "twelve": 7774,
      "limp": 7775,
      "army": 7776,
      "gogg": 7777,
      "spare": 7778,
      "whether": 7779,
      "gram": 7780,
      "catty": 7781,
      "compe": 7782,
      "bunbun": 7783,
      "scrubbing": 7784,
      "kissing": 7785,
      "feathered": 7786,
      "frustration": 7787,
      "accep": 7788,
      "tanks": 7789,
      "dedic": 7790,
      "writer": 7791,
      "aprons": 7792,
      "bathed": 7793,
      "achievement": 7794,
      "crafts": 7795,
      "binoculars": 7796,
      "bly": 7797,
      "cting": 7798,
      "ziggy": 7799,
      "œwelcome": 7800,
      "theat": 7801,
      "sacks": 7802,
      "alison": 7803,
      "ths": 7804,
      "ector": 7805,
      "capture": 7806,
      "lucas": 7807,
      "hunger": 7808,
      "continuing": 7809,
      "gratefully": 7810,
      "passenger": 7811,
      "glan": 7812,
      "glared": 7813,
      "bbing": 7814,
      "ahh": 7815,
      "fifi": 7816,
      "deeply": 7817,
      "stroller": 7818,
      "desperate": 7819,
      "savor": 7820,
      "allergic": 7821,
      "tortoise": 7822,
      "goggles": 7823,
      "theatre": 7824,
      "ridge": 7825,
      "œthanks": 7826,
      "theya": 7827,
      "alfred": 7828,
      "sobbing": 7829,
      "plus": 7830,
      "macar": 7831,
      "span": 7832,
      "tah": 7833,
      "cathy": 7834,
      "parks": 7835,
      "whizz": 7836,
      "earrings": 7837,
      "loudest": 7838,
      "conten": 7839,
      "blamed": 7840,
      "enjoys": 7841,
      "winds": 7842,
      "gia": 7843,
      "mustaches": 7844,
      "cheetah": 7845,
      "weaker": 7846,
      "incredibly": 7847,
      "stacks": 7848,
      "skips": 7849,
      "clubs": 7850,
      "porridge": 7851,
      "repairing": 7852,
      "speaker": 7853,
      "differences": 7854,
      "scrunched": 7855,
      "consider": 7856,
      "stephanie": 7857,
      "macaroni": 7858,
      "contented": 7859,
      "willy": 7860,
      "stings": 7861,
      "sel": 7862,
      "ada": 7863,
      "endant": 7864,
      "smash": 7865,
      "clare": 7866,
      "jumpy": 7867,
      "realise": 7868,
      "headache": 7869,
      "misty": 7870,
      "tents": 7871,
      "praise": 7872,
      "zookeepers": 7873,
      "speck": 7874,
      "pixie": 7875,
      "seriously": 7876,
      "seasons": 7877,
      "flavour": 7878,
      "glittery": 7879,
      "chatter": 7880,
      "kyle": 7881,
      "cooled": 7882,
      "blessed": 7883,
      "nearer": 7884,
      "lantern": 7885,
      "rooster": 7886,
      "galloped": 7887,
      "brakes": 7888,
      ",'": 7889,
      "20": 7890,
      "dande": 7891,
      "mashed": 7892,
      "woken": 7893,
      "eded": 7894,
      "tock": 7895,
      "isted": 7896,
      "aloud": 7897,
      "hadna": 7898,
      "fries": 7899,
      "carni": 7900,
      "mest": 7901,
      "atest": 7902,
      "afterward": 7903,
      "pace": 7904,
      "doesna": 7905,
      "disobey": 7906,
      "droop": 7907,
      "sweetness": 7908,
      "jennif": 7909,
      "minding": 7910,
      "pudding": 7911,
      "melons": 7912,
      "smoothly": 7913,
      "footprints": 7914,
      "paste": 7915,
      "cherished": 7916,
      "trunks": 7917,
      "regularly": 7918,
      "completing": 7919,
      "attaching": 7920,
      "webs": 7921,
      "floaty": 7922,
      "warmest": 7923,
      "mooed": 7924,
      "jodie": 7925,
      "popsicle": 7926,
      "mower": 7927,
      "exhibit": 7928,
      "jennifer": 7929,
      "bish": 7930,
      "gle": 7931,
      "liness": 7932,
      "doves": 7933,
      "spi": 7934,
      "dada": 7935,
      "mushy": 7936,
      "matty": 7937,
      "boarded": 7938,
      "towns": 7939,
      "rubbish": 7940,
      "distra": 7941,
      "chall": 7942,
      "charm": 7943,
      "desks": 7944,
      "threads": 7945,
      "community": 7946,
      "presence": 7947,
      "fifty": 7948,
      "magnific": 7949,
      "funniest": 7950,
      "\"!": 7951,
      "nate": 7952,
      "sul": 7953,
      "topp": 7954,
      "aye": 7955,
      "stic": 7956,
      "ripp": 7957,
      "plumber": 7958,
      "dozed": 7959,
      "chant": 7960,
      "coop": 7961,
      "foo": 7962,
      "deciding": 7963,
      "bernie": 7964,
      "explode": 7965,
      "woodcutter": 7966,
      "heavily": 7967,
      "charged": 7968,
      "enges": 7969,
      "stacking": 7970,
      "energ": 7971,
      "speaks": 7972,
      "trailer": 7973,
      "sneaks": 7974,
      "foggy": 7975,
      "stomachs": 7976,
      "deserves": 7977,
      "disagreeing": 7978,
      "mesmerised": 7979,
      "amongst": 7980,
      "lasted": 7981,
      "builders": 7982,
      "blossom": 7983,
      "frisbee": 7984,
      "carnival": 7985,
      "challenges": 7986,
      "magnificent": 7987,
      "ethan": 7988,
      "rins": 7989,
      "sabr": 7990,
      "ality": 7991,
      "hatch": 7992,
      "ige": 7993,
      "rags": 7994,
      "susy": 7995,
      "mold": 7996,
      "pollen": 7997,
      "baller": 7998,
      "rightful": 7999,
      "bundle": 8000,
      "progress": 8001,
      "jeremy": 8002,
      "scri": 8003,
      "fences": 8004,
      "calming": 8005,
      "stormy": 8006,
      "nibbling": 8007,
      "leaped": 8008,
      "borrowing": 8009,
      "guitars": 8010,
      "massages": 8011,
      "barrels": 8012,
      "dusted": 8013,
      "throne": 8014,
      "stomp": 8015,
      "greeting": 8016,
      "cooed": 8017,
      "depart": 8018,
      "gulped": 8019,
      "champion": 8020,
      "taylor": 8021,
      "rinsed": 8022,
      "sabrina": 8023,
      "clue": 8024,
      "dumb": 8025,
      "hips": 8026,
      "jemma": 8027,
      "randy": 8028,
      "tally": 8029,
      "indoors": 8030,
      "reled": 8031,
      "restoring": 8032,
      "ids": 8033,
      "keen": 8034,
      "sean": 8035,
      "hoof": 8036,
      "ulous": 8037,
      "sphere": 8038,
      "taps": 8039,
      "whoa": 8040,
      "ousel": 8041,
      "greatest": 8042,
      "winking": 8043,
      "brightened": 8044,
      "displaying": 8045,
      "disagreement": 8046,
      "keyhole": 8047,
      "service": 8048,
      "incts": 8049,
      "persistence": 8050,
      "quarreled": 8051,
      "yumm": 8052,
      "softest": 8053,
      "instincts": 8054,
      "reversing": 8055,
      "tempting": 8056,
      "aar": 8057,
      "bum": 8058,
      "cru": 8059,
      "cine": 8060,
      "gorge": 8061,
      "wrench": 8062,
      "ress": 8063,
      "enchanted": 8064,
      "iring": 8065,
      "kest": 8066,
      "sevent": 8067,
      "gobble": 8068,
      "biggie": 8069,
      "carrie": 8070,
      "cole": 8071,
      "homeless": 8072,
      "shaky": 8073,
      "showers": 8074,
      "winners": 8075,
      "proved": 8076,
      "descri": 8077,
      "cutest": 8078,
      "laces": 8079,
      "flappy": 8080,
      "elders": 8081,
      "suggests": 8082,
      "striking": 8083,
      "snuggling": 8084,
      "stalk": 8085,
      "clips": 8086,
      "dustpan": 8087,
      "sends": 8088,
      "possib": 8089,
      "valleys": 8090,
      "beatrice": 8091,
      "flooded": 8092,
      "willow": 8093,
      "pecking": 8094,
      "shooed": 8095,
      "centre": 8096,
      "glimmer": 8097,
      "heights": 8098,
      "depths": 8099,
      "security": 8100,
      "ballerina": 8101,
      "cinema": 8102,
      "gorgeous": 8103,
      "cd": 8104,
      "tiring": 8105,
      "wick": 8106,
      "œmummy": 8107,
      "halves": 8108,
      "erts": 8109,
      "yous": 8110,
      "bop": 8111,
      "boiled": 8112,
      "forty": 8113,
      "carousel": 8114,
      "parking": 8115,
      "anya": 8116,
      "untangled": 8117,
      "fived": 8118,
      "farms": 8119,
      "science": 8120,
      "freely": 8121,
      "servan": 8122,
      "lifeguard": 8123,
      "fuss": 8124,
      "blooms": 8125,
      "desserts": 8126,
      "dives": 8127,
      "buckles": 8128,
      "rails": 8129,
      "winks": 8130,
      "wobbles": 8131,
      "route": 8132,
      "snoring": 8133,
      "crispy": 8134,
      "plopped": 8135,
      "yummiest": 8136,
      "servants": 8137,
      "tink": 8138,
      "œwould": 8139,
      "information": 8140,
      "ernie": 8141,
      "unload": 8142,
      "somehow": 8143,
      "rani": 8144,
      "joyous": 8145,
      "birda": 8146,
      "ift": 8147,
      "clover": 8148,
      "oldest": 8149,
      "anten": 8150,
      "disaster": 8151,
      "painful": 8152,
      "appears": 8153,
      "dripped": 8154,
      "files": 8155,
      "sells": 8156,
      "beaks": 8157,
      "loads": 8158,
      "bolt": 8159,
      "surrendering": 8160,
      "risky": 8161,
      "automobiles": 8162,
      "janice": 8163,
      "concerned": 8164,
      "panting": 8165,
      "occasions": 8166,
      "possession": 8167,
      "scowled": 8168,
      "glanced": 8169,
      "toppings": 8170,
      "department": 8171,
      "fare": 8172,
      "lin": 8173,
      "lur": 8174,
      "pads": 8175,
      "tt": 8176,
      "xop": 8177,
      "online": 8178,
      "saxop": 8179,
      "herd": 8180,
      "thous": 8181,
      "beware": 8182,
      "lilya": 8183,
      "carly": 8184,
      "suck": 8185,
      "sumed": 8186,
      "excell": 8187,
      "madeline": 8188,
      "handy": 8189,
      "greg": 8190,
      "compare": 8191,
      "mumma": 8192,
      "slur": 8193,
      "grandad": 8194,
      "gladly": 8195,
      "woodpeck": 8196,
      "hideout": 8197,
      "eleven": 8198,
      "fans": 8199,
      "kenny": 8200,
      "frightening": 8201,
      "laws": 8202,
      "obediently": 8203,
      "combs": 8204,
      "peeks": 8205,
      "fashionable": 8206,
      "managing": 8207,
      "hovered": 8208,
      "clutched": 8209,
      "competing": 8210,
      "aaron": 8211,
      "?!": 8212,
      "obl": 8213,
      "rumbled": 8214,
      "tut": 8215,
      "ils": 8216,
      "dodge": 8217,
      "roast": 8218,
      "cocon": 8219,
      "boya": 8220,
      "whines": 8221,
      "skate": 8222,
      "offers": 8223,
      "venture": 8224,
      "hearted": 8225,
      "ladybird": 8226,
      "softness": 8227,
      "buys": 8228,
      "jimbo": 8229,
      "studi": 8230,
      "passion": 8231,
      "owls": 8232,
      "squeal": 8233,
      "folds": 8234,
      "pairs": 8235,
      "delightful": 8236,
      "aids": 8237,
      "sniffled": 8238,
      "stomping": 8239,
      "soul": 8240,
      "squawked": 8241,
      "guesses": 8242,
      "actors": 8243,
      "complimented": 8244,
      "woodpecker": 8245,
      "coconut": 8246,
      "studio": 8247,
      "chard": 8248,
      "twitched": 8249,
      "œa": 8250,
      "reck": 8251,
      "orchard": 8252,
      "bethan": 8253,
      "hates": 8254,
      "riet": 8255,
      "uncovered": 8256,
      "chom": 8257,
      "sum": 8258,
      "motions": 8259,
      "exchanged": 8260,
      "urging": 8261,
      "everytime": 8262,
      "skating": 8263,
      "armor": 8264,
      "cling": 8265,
      "beary": 8266,
      "shots": 8267,
      "disobeyed": 8268,
      "farthest": 8269,
      "squirmed": 8270,
      "wetter": 8271,
      "wrists": 8272,
      "pastor": 8273,
      "spaces": 8274,
      "freshly": 8275,
      "launch": 8276,
      "scratchy": 8277,
      "avoided": 8278,
      "swirling": 8279,
      "dips": 8280,
      "dora": 8281,
      "congratulations": 8282,
      "double": 8283,
      "dedication": 8284,
      "possibilities": 8285,
      "saxophone": 8286,
      "excellent": 8287,
      "nudged": 8288,
      "zap": 8289,
      "anny": 8290,
      "invisible": 8291,
      "alf": 8292,
      "adop": 8293,
      "unted": 8294,
      "booth": 8295,
      "spied": 8296,
      "suspic": 8297,
      "ics": 8298,
      "saraha": 8299,
      "learner": 8300,
      "gardening": 8301,
      "snip": 8302,
      "barbe": 8303,
      "lakes": 8304,
      "scribb": 8305,
      "signal": 8306,
      "minty": 8307,
      "gliding": 8308,
      "organised": 8309,
      "crit": 8310,
      "ordering": 8311,
      "striped": 8312,
      "handlebars": 8313,
      "leopards": 8314,
      "stretchy": 8315,
      "ouchy": 8316,
      "tastiest": 8317,
      "pearls": 8318,
      "hamburger": 8319,
      "north": 8320,
      "shimmered": 8321,
      "dodging": 8322,
      "hovering": 8323,
      "spiky": 8324,
      "fooled": 8325,
      "reckless": 8326,
      "bethany": 8327,
      "crushed": 8328,
      "twit": 8329,
      "tad": 8330,
      "vit": 8331,
      "œwill": 8332,
      "œwait": 8333,
      "heid": 8334,
      "inno": 8335,
      "enclo": 8336,
      "ilar": 8337,
      "bead": 8338,
      "kel": 8339,
      "adjust": 8340,
      "unkind": 8341,
      "nephew": 8342,
      "grumble": 8343,
      "polk": 8344,
      "angie": 8345,
      "suring": 8346,
      "lucya": 8347,
      "contained": 8348,
      "liest": 8349,
      "marcus": 8350,
      "blame": 8351,
      "ducklings": 8352,
      "mats": 8353,
      "diana": 8354,
      "smoother": 8355,
      "lunchbox": 8356,
      "mailing": 8357,
      "protector": 8358,
      "values": 8359,
      "palms": 8360,
      "springing": 8361,
      "quarrell": 8362,
      "simba": 8363,
      "majestic": 8364,
      "alfie": 8365,
      "scribbled": 8366,
      "enclosure": 8367,
      "thed": 8368,
      "ister": 8369,
      "ira": 8370,
      "arer": 8371,
      "raked": 8372,
      "raises": 8373,
      "ula": 8374,
      "sparrow": 8375,
      "code": 8376,
      "capes": 8377,
      "doggie": 8378,
      "flyer": 8379,
      "constru": 8380,
      "grandkids": 8381,
      "nightstand": 8382,
      "dining": 8383,
      "snowing": 8384,
      "projects": 8385,
      "smokey": 8386,
      "widely": 8387,
      "chicky": 8388,
      "twirls": 8389,
      "exams": 8390,
      "furious": 8391,
      "access": 8392,
      "racers": 8393,
      "honor": 8394,
      "approval": 8395,
      "stitched": 8396,
      "ruffled": 8397,
      "heidi": 8398,
      "polka": 8399,
      "kara": 8400,
      "oscar": 8401,
      "uum": 8402,
      "oned": 8403,
      "rods": 8404,
      "icia": 8405,
      "caves": 8406,
      "devast": 8407,
      "overheard": 8408,
      "reality": 8409,
      "marley": 8410,
      "missy": 8411,
      "lightly": 8412,
      "ladybugs": 8413,
      "mates": 8414,
      "splat": 8415,
      "purchase": 8416,
      "scree": 8417,
      "fanc": 8418,
      "journeys": 8419,
      "respecting": 8420,
      "ladders": 8421,
      "glows": 8422,
      "rider": 8423,
      "pineapple": 8424,
      "prices": 8425,
      "unicorns": 8426,
      "hopefully": 8427,
      "refusing": 8428,
      "squawk": 8429,
      "vacuum": 8430,
      "accepting": 8431,
      "spanish": 8432,
      "energized": 8433,
      "farewell": 8434,
      "'?\"": 8435,
      "atop": 8436,
      "eve": 8437,
      "mous": 8438,
      "sion": 8439,
      "sizz": 8440,
      "tumbling": 8441,
      "œme": 8442,
      "loos": 8443,
      "sey": 8444,
      "amen": 8445,
      "roam": 8446,
      "antlers": 8447,
      "harriet": 8448,
      "clar": 8449,
      "dylan": 8450,
      "commotion": 8451,
      "tingle": 8452,
      "listener": 8453,
      "voy": 8454,
      "monica": 8455,
      "trad": 8456,
      "smoo": 8457,
      "loneliness": 8458,
      "addition": 8459,
      "tucks": 8460,
      "invol": 8461,
      "folders": 8462,
      "fourth": 8463,
      "suitcases": 8464,
      "fiercely": 8465,
      "supermarket": 8466,
      "zippy": 8467,
      "succeeding": 8468,
      "shields": 8469,
      "weights": 8470,
      "reassuring": 8471,
      "confidently": 8472,
      "threatened": 8473,
      "wilbur": 8474,
      "elizabeth": 8475,
      "bounded": 8476,
      "erasers": 8477,
      "defend": 8478,
      "lurking": 8479,
      "devastated": 8480,
      "mousy": 8481,
      "gri": 8482,
      "kar": 8483,
      "leng": 8484,
      "shea": 8485,
      "los": 8486,
      "plat": 8487,
      "unlike": 8488,
      "chi": 8489,
      "canes": 8490,
      "walter": 8491,
      "fail": 8492,
      "justin": 8493,
      "suns": 8494,
      "acy": 8495,
      "kindest": 8496,
      "puffy": 8497,
      "brag": 8498,
      "cue": 8499,
      "hurtful": 8500,
      "slight": 8501,
      "steered": 8502,
      "squat": 8503,
      "tightened": 8504,
      "horror": 8505,
      "practising": 8506,
      "thinner": 8507,
      "hurrying": 8508,
      "scooping": 8509,
      "enthusiastically": 8510,
      "trophies": 8511,
      "scolding": 8512,
      "bleeds": 8513,
      "wrecked": 8514,
      "scrape": 8515,
      "panicking": 8516,
      "targets": 8517,
      "dumped": 8518,
      "gooey": 8519,
      "considerate": 8520,
      "cies": 8521,
      "dries": 8522,
      "damp": 8523,
      "reaction": 8524,
      "aya": 8525,
      "atmo": 8526,
      "tless": 8527,
      "coaster": 8528,
      "explan": 8529,
      "umn": 8530,
      "howl": 8531,
      "clearer": 8532,
      "fles": 8533,
      "raincoats": 8534,
      "appet": 8535,
      "bobbed": 8536,
      "mari": 8537,
      "marty": 8538,
      "parrots": 8539,
      "guided": 8540,
      "proce": 8541,
      "missiles": 8542,
      "birthdays": 8543,
      "stretcher": 8544,
      "pinec": 8545,
      "chirps": 8546,
      "contents": 8547,
      "mason": 8548,
      "darted": 8549,
      "holidays": 8550,
      "delaying": 8551,
      "supplying": 8552,
      "swirled": 8553,
      "blush": 8554,
      "eyed": 8555,
      "joseph": 8556,
      "juliet": 8557,
      "tutu": 8558,
      "atmosphere": 8559,
      "jes": 8560,
      "kill": 8561,
      "mend": 8562,
      "othy": 8563,
      "site": 8564,
      "var": 8565,
      "zel": 8566,
      "thew": 8567,
      "totally": 8568,
      "retri": 8569,
      "stacy": 8570,
      "cere": 8571,
      "undo": 8572,
      "escap": 8573,
      "forced": 8574,
      "lowers": 8575,
      "abilities": 8576,
      "grumbling": 8577,
      "shame": 8578,
      "prefer": 8579,
      "deck": 8580,
      "wax": 8581,
      "sung": 8582,
      "blob": 8583,
      "dawn": 8584,
      "lighting": 8585,
      "sickness": 8586,
      "hopeless": 8587,
      "honeycomb": 8588,
      "batch": 8589,
      "priest": 8590,
      "peculi": 8591,
      "measures": 8592,
      "beeps": 8593,
      "posts": 8594,
      "clucked": 8595,
      "performer": 8596,
      "tickly": 8597,
      "discussion": 8598,
      "yawns": 8599,
      "chattered": 8600,
      "emergencies": 8601,
      "rustle": 8602,
      "arrange": 8603,
      "biscuits": 8604,
      "juggling": 8605,
      "injuries": 8606,
      "distract": 8607,
      "suspicious": 8608,
      "voyage": 8609,
      "platform": 8610,
      "proceeded": 8611,
      "peculiar": 8612,
      "dates": 8613,
      "hy": 8614,
      "jigg": 8615,
      "pier": 8616,
      "rises": 8617,
      "begun": 8618,
      "unloaded": 8619,
      "liar": 8620,
      "seeking": 8621,
      "mommya": 8622,
      "affect": 8623,
      "debb": 8624,
      "anyways": 8625,
      "paige": 8626,
      "tingling": 8627,
      "connect": 8628,
      "embrace": 8629,
      "cooks": 8630,
      "musical": 8631,
      "heaviest": 8632,
      "partner": 8633,
      "mmmm": 8634,
      "glimp": 8635,
      "barky": 8636,
      "layer": 8637,
      "charles": 8638,
      "curry": 8639,
      "bullies": 8640,
      "terribly": 8641,
      "resisting": 8642,
      "entering": 8643,
      "kernel": 8644,
      "niece": 8645,
      ".'\"": 8646,
      "lamps": 8647,
      "nicky": 8648,
      "autumn": 8649,
      "collage": 8650,
      "pounding": 8651,
      "mischief": 8652,
      "juggle": 8653,
      "leaping": 8654,
      "detective": 8655,
      "scribble": 8656,
      "wicked": 8657,
      "ceremony": 8658,
      "debbie": 8659,
      "lance": 8660,
      "pounce": 8661,
      "sly": 8662,
      "arrested": 8663,
      "isla": 8664,
      "stiff": 8665,
      "begs": 8666,
      "uttered": 8667,
      "neighed": 8668,
      "forming": 8669,
      "tales": 8670,
      "toot": 8671,
      "aband": 8672,
      "clothing": 8673,
      "maxa": 8674,
      "dere": 8675,
      "runny": 8676,
      "brrr": 8677,
      "percy": 8678,
      "broo": 8679,
      "hairs": 8680,
      "owning": 8681,
      "ipes": 8682,
      "fixer": 8683,
      "tripping": 8684,
      "treating": 8685,
      "jaws": 8686,
      "serves": 8687,
      "numbered": 8688,
      "streaming": 8689,
      "toothpaste": 8690,
      "disgusted": 8691,
      "spelling": 8692,
      "socky": 8693,
      "crows": 8694,
      "surrounding": 8695,
      "confusing": 8696,
      "sixty": 8697,
      "squeaks": 8698,
      "lovingly": 8699,
      "wilma": 8700,
      "stained": 8701,
      "concentrated": 8702,
      "snoo": 8703,
      "ripples": 8704,
      "accessor": 8705,
      "cass": 8706,
      "cities": 8707,
      "dash": 8708,
      "lens": 8709,
      "nug": 8710,
      "som": 8711,
      "rejo": 8712,
      "ersa": 8713,
      "alia": 8714,
      "alicia": 8715,
      "thor": 8716,
      "noah": 8717,
      "richer": 8718,
      "ungrateful": 8719,
      "ender": 8720,
      "france": 8721,
      "backward": 8722,
      "prison": 8723,
      "ruffy": 8724,
      "budd": 8725,
      "acro": 8726,
      "empt": 8727,
      "settling": 8728,
      "quicker": 8729,
      "guid": 8730,
      "arrives": 8731,
      "training": 8732,
      "scaly": 8733,
      "belief": 8734,
      "wrappers": 8735,
      "patients": 8736,
      "ratty": 8737,
      "melts": 8738,
      "cornfield": 8739,
      "charity": 8740,
      "goldfish": 8741,
      "payoff": 8742,
      "notices": 8743,
      "harmful": 8744,
      "limits": 8745,
      "meets": 8746,
      "shortcut": 8747,
      "introducing": 8748,
      "pistols": 8749,
      "equally": 8750,
      "tours": 8751,
      "lectures": 8752,
      "pingu": 8753,
      "scientists": 8754,
      "concentrate": 8755,
      "horrible": 8756,
      "barbecue": 8757,
      "explanation": 8758,
      "bould": 8759,
      "fist": 8760,
      "tia": 8761,
      "œgo": 8762,
      "œthere": 8763,
      "œjohn": 8764,
      "asped": 8765,
      "ony": 8766,
      "erin": 8767,
      "arrest": 8768,
      "rolly": 8769,
      "gruff": 8770,
      "anybody": 8771,
      "cleo": 8772,
      "sundays": 8773,
      "handles": 8774,
      "perch": 8775,
      "grandchildren": 8776,
      "grandparent": 8777,
      "€™.": 8778,
      "tracy": 8779,
      "pedalled": 8780,
      "syl": 8781,
      "patting": 8782,
      "sharpen": 8783,
      "sery": 8784,
      "chicks": 8785,
      "tiara": 8786,
      "contentment": 8787,
      "strict": 8788,
      "skinny": 8789,
      "nursery": 8790,
      "streams": 8791,
      "sneaking": 8792,
      "spirits": 8793,
      "pitched": 8794,
      "pitcher": 8795,
      "bangs": 8796,
      "disappears": 8797,
      "slime": 8798,
      "willie": 8799,
      "rupert": 8800,
      "eww": 8801,
      "padlock": 8802,
      "lynn": 8803,
      "sculptures": 8804,
      "dialed": 8805,
      "foreshadowing": 8806,
      "sleeves": 8807,
      "dandelion": 8808,
      "length": 8809,
      "somersa": 8810,
      "buddies": 8811,
      "boulder": 8812,
      "'.\"": 8813,
      "bil": 8814,
      "dong": 8815,
      "hint": 8816,
      "lumpy": 8817,
      "pom": 8818,
      "switches": 8819,
      "uel": 8820,
      "œremember": 8821,
      "recovered": 8822,
      "forwards": 8823,
      "geor": 8824,
      "carts": 8825,
      "newly": 8826,
      "prof": 8827,
      "howled": 8828,
      "buster": 8829,
      "buffy": 8830,
      "bubbled": 8831,
      "device": 8832,
      "jackson": 8833,
      "packet": 8834,
      "flowed": 8835,
      "jumper": 8836,
      "plets": 8837,
      "marvin": 8838,
      "blond": 8839,
      "squashes": 8840,
      "janea": 8841,
      "studies": 8842,
      "zzly": 8843,
      "praises": 8844,
      "rosemary": 8845,
      "villain": 8846,
      "warns": 8847,
      "flashlights": 8848,
      "pals": 8849,
      "islands": 8850,
      "springs": 8851,
      "hammering": 8852,
      "stalks": 8853,
      "sealed": 8854,
      "cables": 8855,
      "steaming": 8856,
      "ninety": 8857,
      "wriggling": 8858,
      "jeans": 8859,
      "aisles": 8860,
      "knitting": 8861,
      "majesty": 8862,
      "foreshadowed": 8863,
      "inspected": 8864,
      "snarled": 8865,
      "obstacles": 8866,
      "cruel": 8867,
      "seventy": 8868,
      "vitam": 8869,
      "grizzly": 8870,
      "slightly": 8871,
      "escaping": 8872,
      "glimpse": 8873,
      "dv": 8874,
      "gin": 8875,
      "slo": 8876,
      "œmama": 8877,
      "recy": 8878,
      "removing": 8879,
      "haps": 8880,
      "lobby": 8881,
      "ces": 8882,
      "soggy": 8883,
      "roasted": 8884,
      "carve": 8885,
      "elled": 8886,
      "icated": 8887,
      "iety": 8888,
      "quizz": 8889,
      "catcher": 8890,
      "swift": 8891,
      "overflowing": 8892,
      "persu": 8893,
      "perhaps": 8894,
      "sandals": 8895,
      "favorites": 8896,
      "hungrier": 8897,
      "matthew": 8898,
      "zog": 8899,
      "browny": 8900,
      "mustn": 8901,
      "desc": 8902,
      "potty": 8903,
      "solid": 8904,
      "grownups": 8905,
      "independence": 8906,
      "posters": 8907,
      "chances": 8908,
      "begging": 8909,
      "godmother": 8910,
      "releasing": 8911,
      "sneakers": 8912,
      "victo": 8913,
      "tuesdays": 8914,
      "connection": 8915,
      "fondly": 8916,
      "sleeve": 8917,
      "cucumbers": 8918,
      "appetite": 8919,
      "derek": 8920,
      "nuggets": 8921,
      "afri": 8922,
      "aback": 8923,
      "bumble": 8924,
      "crust": 8925,
      "faye": 8926,
      "gab": 8927,
      "glistened": 8928,
      "plow": 8929,
      "rink": 8930,
      "œhere": 8931,
      "reel": 8932,
      "resumed": 8933,
      "album": 8934,
      "lolly": 8935,
      "behold": 8936,
      "plum": 8937,
      "nelly": 8938,
      "carved": 8939,
      "laz": 8940,
      "caps": 8941,
      "annabel": 8942,
      "skates": 8943,
      "ladies": 8944,
      "shorel": 8945,
      "wondr": 8946,
      "replacing": 8947,
      "props": 8948,
      "craz": 8949,
      "huff": 8950,
      "calf": 8951,
      "bandaged": 8952,
      "scott": 8953,
      "curves": 8954,
      "gaining": 8955,
      "ironing": 8956,
      "fortunate": 8957,
      "grinning": 8958,
      "eighty": 8959,
      "stares": 8960,
      "chief": 8961,
      "position": 8962,
      "captiv": 8963,
      "obstacle": 8964,
      "cucumber": 8965,
      "interrupted": 8966,
      "scuttled": 8967,
      "antenna": 8968,
      "oblig": 8969,
      "abandoned": 8970,
      "shoreline": 8971,
      "wondrous": 8972,
      "cul": 8973,
      "cate": 8974,
      "dged": 8975,
      "fired": 8976,
      "ogre": 8977,
      "rasp": 8978,
      "œhelp": 8979,
      "sama": 8980,
      "saves": 8981,
      "lexi": 8982,
      "stump": 8983,
      "strolling": 8984,
      "ats": 8985,
      "placing": 8986,
      "unnecessary": 8987,
      "hobby": 8988,
      "boop": 8989,
      "bozo": 8990,
      "chunk": 8991,
      "rollie": 8992,
      "frienda": 8993,
      "mei": 8994,
      "shif": 8995,
      "shuff": 8996,
      "pred": 8997,
      "posed": 8998,
      "angles": 8999,
      "blech": 9000,
      "drey": 9001,
      "longing": 9002,
      "ellen": 9003,
      "embra": 9004,
      "workshop": 9005,
      "paramed": 9006,
      "nightfall": 9007,
      "greater": 9008,
      "boatman": 9009,
      "fixes": 9010,
      "coolness": 9011,
      "sations": 9012,
      "gerry": 9013,
      "angela": 9014,
      "mornings": 9015,
      "mini": 9016,
      "sharon": 9017,
      "mixes": 9018,
      "fitting": 9019,
      "chaos": 9020,
      "bruise": 9021,
      "rattle": 9022,
      "smoothie": 9023,
      "cursed": 9024,
      "pinches": 9025,
      "figuring": 9026,
      "audrey": 9027,
      "gloria": 9028,
      "recipes": 9029,
      "sipping": 9030,
      "remains": 9031,
      "shades": 9032,
      "separating": 9033,
      "wasteful": 9034,
      "sips": 9035,
      "flavours": 9036,
      "earthquakes": 9037,
      "ruled": 9038,
      ".''": 9039,
      "strummed": 9040,
      "slams": 9041,
      "blessing": 9042,
      "fifteen": 9043,
      "possessions": 9044,
      "captured": 9045,
      "hammers": 9046,
      "hammered": 9047,
      "cigarette": 9048,
      "construction": 9049,
      "screech": 9050,
      "brooke": 9051,
      "quizzes": 9052,
      "obliged": 9053,
      "awaited": 9054,
      "nia": 9055,
      "troll": 9056,
      "œmum": 9057,
      "tone": 9058,
      "ime": 9059,
      "seated": 9060,
      "vere": 9061,
      "riches": 9062,
      "ranced": 9063,
      "othera": 9064,
      "maxine": 9065,
      "harve": 9066,
      "setup": 9067,
      "adventurers": 9068,
      "waitress": 9069,
      "importantly": 9070,
      "bailey": 9071,
      "prop": 9072,
      "sleepover": 9073,
      "drags": 9074,
      "due": 9075,
      "stress": 9076,
      "sicker": 9077,
      "destru": 9078,
      "notebooks": 9079,
      "priv": 9080,
      "gail": 9081,
      "thoughtfully": 9082,
      "pippy": 9083,
      "friendships": 9084,
      "alexa": 9085,
      "challenging": 9086,
      "conversations": 9087,
      "blurry": 9088,
      "murky": 9089,
      "quarrelling": 9090,
      "squatted": 9091,
      "acrobats": 9092,
      "15": 9093,
      "cular": 9094,
      "fading": 9095,
      "gad": 9096,
      "mound": 9097,
      "oars": 9098,
      "slot": 9099,
      "sons": 9100,
      "sens": 9101,
      "heated": 9102,
      "total": 9103,
      "ilst": 9104,
      "uncover": 9105,
      "dood": 9106,
      "nell": 9107,
      "litter": 9108,
      "spades": 9109,
      "fulfilled": 9110,
      "frames": 9111,
      "starry": 9112,
      "joel": 9113,
      "poof": 9114,
      "whilst": 9115,
      "useless": 9116,
      "bedside": 9117,
      "umph": 9118,
      "compost": 9119,
      "aculous": 9120,
      "fizz": 9121,
      "trudged": 9122,
      "granddad": 9123,
      "sweating": 9124,
      "drown": 9125,
      "cutters": 9126,
      "messing": 9127,
      "trim": 9128,
      "squirt": 9129,
      "sists": 9130,
      "dia": 9131,
      "events": 9132,
      "miraculous": 9133,
      "graham": 9134,
      "motors": 9135,
      "cabbage": 9136,
      "gloss": 9137,
      "gumball": 9138,
      "impatiently": 9139,
      "repairs": 9140,
      "yielding": 9141,
      "kneels": 9142,
      "requests": 9143,
      "!''": 9144,
      "strikes": 9145,
      "stems": 9146,
      "blues": 9147,
      "slithering": 9148,
      "imaginative": 9149,
      "sweeping": 9150,
      "curls": 9151,
      "admitted": 9152,
      "jingle": 9153,
      "stripey": 9154,
      "invention": 9155,
      "guidance": 9156,
      "victorious": 9157,
      "africa": 9158,
      "captivated": 9159,
      "bre": 9160,
      "bour": 9161,
      "bending": 9162,
      "dles": 9163,
      "fto": 9164,
      "gal": 9165,
      "gill": 9166,
      "pave": 9167,
      "tending": 9168,
      "inched": 9169,
      "lefto": 9170,
      "ute": 9171,
      "unlucky": 9172,
      "unlocks": 9173,
      "rais": 9174,
      "carriage": 9175,
      "elisa": 9176,
      "cody": 9177,
      "ickest": 9178,
      "quality": 9179,
      "potent": 9180,
      "whining": 9181,
      "jules": 9182,
      "sunk": 9183,
      "sunda": 9184,
      "creaked": 9185,
      "creaking": 9186,
      "clam": 9187,
      "classes": 9188,
      "survi": 9189,
      "grounds": 9190,
      "const": 9191,
      "bobbing": 9192,
      "climber": 9193,
      "monstr": 9194,
      "dazz": 9195,
      "storybook": 9196,
      "snipped": 9197,
      "cords": 9198,
      "princes": 9199,
      "nestled": 9200,
      "bands": 9201,
      "wands": 9202,
      "flippers": 9203,
      "crum": 9204,
      "silk": 9205,
      "salsa": 9206,
      "stylish": 9207,
      "kaylee": 9208,
      "views": 9209,
      "sinks": 9210,
      "combination": 9211,
      "envy": 9212,
      "hooked": 9213,
      "turkeys": 9214,
      "splitting": 9215,
      "scooted": 9216,
[...]
